{
  "version": "1.0",
  "truncation": null,
  "padding": null,
  "added_tokens": [
    {
      "id": 0,
      "content": "<s>",
      "single_word": false,
      "lstrip": false,
      "rstrip": false,
      "normalized": false,
      "special": true
    },
    {
      "id": 1,
      "content": "<pad>",
      "single_word": false,
      "lstrip": false,
      "rstrip": false,
      "normalized": false,
      "special": true
    },
    {
      "id": 2,
      "content": "</s>",
      "single_word": false,
      "lstrip": false,
      "rstrip": false,
      "normalized": false,
      "special": true
    },
    {
      "id": 3,
      "content": "<unk>",
      "single_word": false,
      "lstrip": false,
      "rstrip": false,
      "normalized": false,
      "special": true
    },
    {
      "id": 4,
      "content": "<mask>",
      "single_word": false,
      "lstrip": false,
      "rstrip": false,
      "normalized": false,
      "special": true
    }
  ],
  "normalizer": null,
  "pre_tokenizer": {
    "type": "Sequence",
    "pretokenizers": [
      {
        "type": "WhitespaceSplit"
      },
      {
        "type": "Split",
        "pattern": {
          "String": "<mecab>"
        },
        "behavior": "Removed",
        "invert": false
      }
    ]
  },
  "post_processor": null,
  "decoder": null,
  "model": {
    "type": "BPE",
    "dropout": null,
    "unk_token": "<unk>",
    "continuing_subword_prefix": null,
    "end_of_word_suffix": null,
    "fuse_unk": false,
    "byte_fallback": false,
    "ignore_merges": false,
    "vocab": {
      "<s>": 0,
      "<pad>": 1,
      "</s>": 2,
      "<unk>": 3,
      "<mask>": 4,
      "!": 5,
      "\"": 6,
      "#": 7,
      "&": 8,
      "'": 9,
      "(": 10,
      ")": 11,
      "*": 12,
      "+": 13,
      ",": 14,
      "-": 15,
      ".": 16,
      "/": 17,
      "0": 18,
      "1": 19,
      "2": 20,
      "3": 21,
      "4": 22,
      "5": 23,
      "6": 24,
      "7": 25,
      "8": 26,
      "9": 27,
      ":": 28,
      ";": 29,
      "<": 30,
      "=": 31,
      ">": 32,
      "?": 33,
      "A": 34,
      "B": 35,
      "C": 36,
      "D": 37,
      "E": 38,
      "F": 39,
      "G": 40,
      "H": 41,
      "I": 42,
      "J": 43,
      "K": 44,
      "L": 45,
      "M": 46,
      "N": 47,
      "O": 48,
      "P": 49,
      "Q": 50,
      "R": 51,
      "S": 52,
      "T": 53,
      "U": 54,
      "V": 55,
      "X": 56,
      "Y": 57,
      "[": 58,
      "]": 59,
      "_": 60,
      "`": 61,
      "a": 62,
      "b": 63,
      "c": 64,
      "d": 65,
      "e": 66,
      "f": 67,
      "g": 68,
      "h": 69,
      "i": 70,
      "j": 71,
      "k": 72,
      "l": 73,
      "m": 74,
      "n": 75,
      "o": 76,
      "p": 77,
      "r": 78,
      "s": 79,
      "t": 80,
      "u": 81,
      "v": 82,
      "w": 83,
      "x": 84,
      "y": 85,
      "z": 86,
      "{": 87,
      "}": 88,
      "à": 89,
      "á": 90,
      "ô": 91,
      "ণ": 92,
      "প": 93,
      "য": 94,
      "্": 95,
      "ạ": 96,
      "ẹ": 97,
      "ệ": 98,
      "ụ": 99,
      "ủ": 100,
      "–": 101,
      "가": 102,
      "각": 103,
      "간": 104,
      "갈": 105,
      "감": 106,
      "갑": 107,
      "값": 108,
      "갔": 109,
      "강": 110,
      "갖": 111,
      "같": 112,
      "개": 113,
      "객": 114,
      "거": 115,
      "건": 116,
      "걸": 117,
      "검": 118,
      "것": 119,
      "게": 120,
      "겐": 121,
      "겠": 122,
      "겨": 123,
      "격": 124,
      "겪": 125,
      "견": 126,
      "결": 127,
      "겼": 128,
      "경": 129,
      "계": 130,
      "고": 131,
      "곡": 132,
      "곤": 133,
      "곧": 134,
      "골": 135,
      "곳": 136,
      "공": 137,
      "과": 138,
      "관": 139,
      "괄": 140,
      "광": 141,
      "괴": 142,
      "교": 143,
      "구": 144,
      "국": 145,
      "군": 146,
      "굴": 147,
      "굵": 148,
      "권": 149,
      "귀": 150,
      "균": 151,
      "귤": 152,
      "그": 153,
      "극": 154,
      "근": 155,
      "글": 156,
      "금": 157,
      "급": 158,
      "긍": 159,
      "기": 160,
      "긴": 161,
      "길": 162,
      "깊": 163,
      "까": 164,
      "깨": 165,
      "꺽": 166,
      "꺾": 167,
      "껍": 168,
      "께": 169,
      "꼬": 170,
      "꼭": 171,
      "꼴": 172,
      "꽃": 173,
      "꾸": 174,
      "꿈": 175,
      "끝": 176,
      "끼": 177,
      "나": 178,
      "난": 179,
      "날": 180,
      "남": 181,
      "났": 182,
      "낯": 183,
      "내": 184,
      "낸": 185,
      "낼": 186,
      "냈": 187,
      "냥": 188,
      "너": 189,
      "널": 190,
      "넓": 191,
      "넘": 192,
      "넣": 193,
      "네": 194,
      "넬": 195,
      "넷": 196,
      "녀": 197,
      "년": 198,
      "녕": 199,
      "노": 200,
      "녹": 201,
      "논": 202,
      "놀": 203,
      "농": 204,
      "높": 205,
      "놓": 206,
      "누": 207,
      "눈": 208,
      "눠": 209,
      "뉜": 210,
      "뉴": 211,
      "늄": 212,
      "느": 213,
      "는": 214,
      "늘": 215,
      "능": 216,
      "늦": 217,
      "니": 218,
      "닌": 219,
      "닙": 220,
      "다": 221,
      "단": 222,
      "닫": 223,
      "달": 224,
      "담": 225,
      "답": 226,
      "당": 227,
      "대": 228,
      "더": 229,
      "던": 230,
      "덜": 231,
      "데": 232,
      "덱": 233,
      "델": 234,
      "뎁": 235,
      "도": 236,
      "독": 237,
      "돈": 238,
      "돌": 239,
      "동": 240,
      "되": 241,
      "된": 242,
      "될": 243,
      "됩": 244,
      "두": 245,
      "둔": 246,
      "둘": 247,
      "뒤": 248,
      "뒷": 249,
      "듀": 250,
      "드": 251,
      "득": 252,
      "든": 253,
      "듣": 254,
      "들": 255,
      "듭": 256,
      "등": 257,
      "디": 258,
      "딘": 259,
      "딜": 260,
      "딩": 261,
      "따": 262,
      "딸": 263,
      "땅": 264,
      "때": 265,
      "떠": 266,
      "떤": 267,
      "떻": 268,
      "또": 269,
      "똑": 270,
      "뚫": 271,
      "뜻": 272,
      "띄": 273,
      "라": 274,
      "락": 275,
      "란": 276,
      "랄": 277,
      "람": 278,
      "랍": 279,
      "랑": 280,
      "래": 281,
      "랜": 282,
      "램": 283,
      "랩": 284,
      "랫": 285,
      "랭": 286,
      "략": 287,
      "량": 288,
      "러": 289,
      "런": 290,
      "럴": 291,
      "럼": 292,
      "럽": 293,
      "렇": 294,
      "레": 295,
      "렉": 296,
      "렌": 297,
      "려": 298,
      "력": 299,
      "련": 300,
      "렸": 301,
      "령": 302,
      "례": 303,
      "로": 304,
      "록": 305,
      "론": 306,
      "롬": 307,
      "롭": 308,
      "뢰": 309,
      "료": 310,
      "룡": 311,
      "루": 312,
      "룩": 313,
      "룹": 314,
      "류": 315,
      "륙": 316,
      "르": 317,
      "른": 318,
      "를": 319,
      "름": 320,
      "릅": 321,
      "리": 322,
      "릭": 323,
      "린": 324,
      "릴": 325,
      "림": 326,
      "립": 327,
      "릿": 328,
      "링": 329,
      "마": 330,
      "막": 331,
      "만": 332,
      "많": 333,
      "말": 334,
      "망": 335,
      "맞": 336,
      "매": 337,
      "맥": 338,
      "맨": 339,
      "맷": 340,
      "머": 341,
      "먹": 342,
      "먼": 343,
      "메": 344,
      "멘": 345,
      "멜": 346,
      "며": 347,
      "면": 348,
      "멸": 349,
      "명": 350,
      "몇": 351,
      "모": 352,
      "목": 353,
      "몬": 354,
      "몽": 355,
      "묘": 356,
      "무": 357,
      "묶": 358,
      "문": 359,
      "물": 360,
      "뭐": 361,
      "뮬": 362,
      "미": 363,
      "민": 364,
      "밀": 365,
      "및": 366,
      "바": 367,
      "박": 368,
      "반": 369,
      "받": 370,
      "발": 371,
      "밤": 372,
      "밥": 373,
      "방": 374,
      "배": 375,
      "백": 376,
      "버": 377,
      "번": 378,
      "벌": 379,
      "범": 380,
      "법": 381,
      "벗": 382,
      "베": 383,
      "벤": 384,
      "벵": 385,
      "벼": 386,
      "벽": 387,
      "변": 388,
      "별": 389,
      "볍": 390,
      "보": 391,
      "복": 392,
      "본": 393,
      "볼": 394,
      "봄": 395,
      "부": 396,
      "북": 397,
      "분": 398,
      "불": 399,
      "붙": 400,
      "뷰": 401,
      "브": 402,
      "븐": 403,
      "블": 404,
      "비": 405,
      "빌": 406,
      "빛": 407,
      "빠": 408,
      "쁜": 409,
      "쁨": 410,
      "사": 411,
      "산": 412,
      "살": 413,
      "삶": 414,
      "삼": 415,
      "샀": 416,
      "상": 417,
      "새": 418,
      "색": 419,
      "샌": 420,
      "생": 421,
      "샵": 422,
      "서": 423,
      "석": 424,
      "선": 425,
      "설": 426,
      "섯": 427,
      "성": 428,
      "세": 429,
      "섹": 430,
      "센": 431,
      "셋": 432,
      "셔": 433,
      "션": 434,
      "셜": 435,
      "셨": 436,
      "셰": 437,
      "소": 438,
      "속": 439,
      "손": 440,
      "송": 441,
      "쇄": 442,
      "쇠": 443,
      "쇼": 444,
      "숍": 445,
      "수": 446,
      "술": 447,
      "숫": 448,
      "숲": 449,
      "쉬": 450,
      "쉼": 451,
      "쉽": 452,
      "슈": 453,
      "슐": 454,
      "스": 455,
      "슨": 456,
      "슬": 457,
      "습": 458,
      "슷": 459,
      "시": 460,
      "식": 461,
      "신": 462,
      "실": 463,
      "심": 464,
      "십": 465,
      "싱": 466,
      "싶": 467,
      "싸": 468,
      "싼": 469,
      "쌀": 470,
      "써": 471,
      "쓰": 472,
      "쓸": 473,
      "씀": 474,
      "씨": 475,
      "아": 476,
      "악": 477,
      "안": 478,
      "앉": 479,
      "않": 480,
      "알": 481,
      "암": 482,
      "앗": 483,
      "았": 484,
      "앞": 485,
      "애": 486,
      "앨": 487,
      "앰": 488,
      "앱": 489,
      "야": 490,
      "약": 491,
      "양": 492,
      "어": 493,
      "억": 494,
      "언": 495,
      "얻": 496,
      "얼": 497,
      "엄": 498,
      "업": 499,
      "없": 500,
      "엇": 501,
      "었": 502,
      "에": 503,
      "엔": 504,
      "엘": 505,
      "여": 506,
      "역": 507,
      "연": 508,
      "열": 509,
      "염": 510,
      "였": 511,
      "영": 512,
      "예": 513,
      "오": 514,
      "온": 515,
      "올": 516,
      "옳": 517,
      "옴": 518,
      "옵": 519,
      "옹": 520,
      "와": 521,
      "완": 522,
      "왕": 523,
      "왜": 524,
      "외": 525,
      "요": 526,
      "욕": 527,
      "용": 528,
      "우": 529,
      "운": 530,
      "울": 531,
      "움": 532,
      "워": 533,
      "원": 534,
      "웨": 535,
      "웹": 536,
      "위": 537,
      "윗": 538,
      "유": 539,
      "육": 540,
      "으": 541,
      "은": 542,
      "을": 543,
      "음": 544,
      "응": 545,
      "의": 546,
      "이": 547,
      "익": 548,
      "인": 549,
      "일": 550,
      "잃": 551,
      "임": 552,
      "입": 553,
      "있": 554,
      "잉": 555,
      "잊": 556,
      "자": 557,
      "작": 558,
      "잘": 559,
      "잠": 560,
      "잡": 561,
      "장": 562,
      "재": 563,
      "쟁": 564,
      "저": 565,
      "적": 566,
      "전": 567,
      "절": 568,
      "젊": 569,
      "점": 570,
      "접": 571,
      "정": 572,
      "제": 573,
      "젝": 574,
      "젠": 575,
      "젤": 576,
      "져": 577,
      "졌": 578,
      "조": 579,
      "족": 580,
      "존": 581,
      "졸": 582,
      "종": 583,
      "좋": 584,
      "좌": 585,
      "죠": 586,
      "주": 587,
      "죽": 588,
      "준": 589,
      "줄": 590,
      "줍": 591,
      "중": 592,
      "줘": 593,
      "즈": 594,
      "즉": 595,
      "즐": 596,
      "증": 597,
      "지": 598,
      "직": 599,
      "진": 600,
      "질": 601,
      "집": 602,
      "짓": 603,
      "징": 604,
      "짜": 605,
      "짝": 606,
      "짧": 607,
      "째": 608,
      "쫓": 609,
      "차": 610,
      "착": 611,
      "찰": 612,
      "창": 613,
      "찾": 614,
      "채": 615,
      "책": 616,
      "처": 617,
      "천": 618,
      "첫": 619,
      "청": 620,
      "체": 621,
      "쳐": 622,
      "쳤": 623,
      "초": 624,
      "촉": 625,
      "촌": 626,
      "총": 627,
      "최": 628,
      "추": 629,
      "축": 630,
      "출": 631,
      "충": 632,
      "춰": 633,
      "취": 634,
      "츄": 635,
      "츠": 636,
      "측": 637,
      "치": 638,
      "친": 639,
      "침": 640,
      "칭": 641,
      "카": 642,
      "칸": 643,
      "칼": 644,
      "캐": 645,
      "캔": 646,
      "캡": 647,
      "캥": 648,
      "커": 649,
      "컬": 650,
      "컴": 651,
      "케": 652,
      "켓": 653,
      "켰": 654,
      "코": 655,
      "콘": 656,
      "콧": 657,
      "콩": 658,
      "쿠": 659,
      "쿨": 660,
      "퀘": 661,
      "퀴": 662,
      "퀸": 663,
      "크": 664,
      "큰": 665,
      "클": 666,
      "큼": 667,
      "키": 668,
      "킨": 669,
      "킬": 670,
      "타": 671,
      "탁": 672,
      "탄": 673,
      "탈": 674,
      "탕": 675,
      "태": 676,
      "택": 677,
      "탤": 678,
      "터": 679,
      "턴": 680,
      "털": 681,
      "테": 682,
      "텍": 683,
      "텐": 684,
      "텔": 685,
      "템": 686,
      "토": 687,
      "톤": 688,
      "톱": 689,
      "통": 690,
      "투": 691,
      "툰": 692,
      "툴": 693,
      "트": 694,
      "특": 695,
      "튼": 696,
      "틀": 697,
      "티": 698,
      "틱": 699,
      "팀": 700,
      "팅": 701,
      "파": 702,
      "판": 703,
      "팔": 704,
      "패": 705,
      "팬": 706,
      "퍼": 707,
      "펀": 708,
      "페": 709,
      "펙": 710,
      "펫": 711,
      "편": 712,
      "평": 713,
      "폐": 714,
      "포": 715,
      "폭": 716,
      "폰": 717,
      "폼": 718,
      "표": 719,
      "푸": 720,
      "품": 721,
      "풍": 722,
      "퓨": 723,
      "프": 724,
      "플": 725,
      "픔": 726,
      "피": 727,
      "픽": 728,
      "필": 729,
      "핑": 730,
      "하": 731,
      "학": 732,
      "한": 733,
      "할": 734,
      "함": 735,
      "합": 736,
      "항": 737,
      "해": 738,
      "핵": 739,
      "햄": 740,
      "했": 741,
      "행": 742,
      "향": 743,
      "허": 744,
      "헌": 745,
      "험": 746,
      "헤": 747,
      "헨": 748,
      "헬": 749,
      "혀": 750,
      "혁": 751,
      "현": 752,
      "혐": 753,
      "형": 754,
      "호": 755,
      "혼": 756,
      "홈": 757,
      "홉": 758,
      "홍": 759,
      "화": 760,
      "확": 761,
      "환": 762,
      "회": 763,
      "획": 764,
      "효": 765,
      "후": 766,
      "훈": 767,
      "훔": 768,
      "훼": 769,
      "휘": 770,
      "휴": 771,
      "흉": 772,
      "흥": 773,
      "흰": 774,
      "히": 775,
      "힌": 776,
      "힐": 777,
      "힘": 778,
      "세요": 779,
      "니다": 780,
      "작성": 781,
      "**": 782,
      "응답": 783,
      "으로": 784,
      "합니다": 785,
      "포함": 786,
      "단어": 787,
      "대한": 788,
      "개의": 789,
      "사용": 790,
      "답변": 791,
      "라는": 792,
      "어야": 793,
      "시오": 794,
      "십시오": 795,
      "최소": 796,
      "입니다": 797,
      "기호": 798,
      "에서": 799,
      "섹션": 800,
      "다음": 801,
      "당신": 802,
      "습니다": 803,
      "정확": 804,
      "해야": 805,
      "머리": 806,
      "글머리": 807,
      "전체": 808,
      "위한": 809,
      "형식": 810,
      "문장": 811,
      "표시": 812,
      "나요": 813,
      "다른": 814,
      "다운": 815,
      "스트": 816,
      "정확히": 817,
      "마크": 818,
      "마크다운": 819,
      "강조": 820,
      "며,": 821,
      "마세요": 822,
      "제목": 823,
      "감싸": 824,
      "반복": 825,
      "요청": 826,
      "구분": 827,
      "쉼표": 828,
      "****": 829,
      "00": 830,
      "세요:": 831,
      "괄호": 832,
      ".\"": 833,
      "시작": 834,
      "고,": 835,
      "인가": 836,
      "..": 837,
      "대답": 838,
      "사람": 839,
      "이름": 840,
      "이상": 841,
      "하나": 842,
      "로운": 843,
      "에게": 844,
      "재미": 845,
      "***": 846,
      "P.": 847,
      "대해": 848,
      "설명": 849,
      "텍스트": 850,
      "재미있": 851,
      "워드": 852,
      "인가요": 853,
      "새로운": 854,
      "키워드": 855,
      "단락": 856,
      "따옴": 857,
      "제공": 858,
      "따옴표": 859,
      "<<": 860,
      ">>": 861,
      "위해": 862,
      "큰따옴표": 863,
      "3개의": 864,
      "가지": 865,
      "언어": 866,
      "자리": 867,
      "\"제": 868,
      "\"라는": 869,
      "귀하": 870,
      "무엇": 871,
      "이중": 872,
      "00단어": 873,
      "10": 874,
      "허용": 875,
      "*강조": 876,
      "로그": 877,
      "별표": 878,
      "스타": 879,
      "JS": 880,
      "ON": 881,
      "광고": 882,
      "블로그": 883,
      "추가": 884,
      "******": 885,
      "무엇인가요": 886,
      "JSON": 887,
      "6개의": 888,
      "또는": 889,
      "먼저": 890,
      "우리": 891,
      "최소한": 892,
      "P.S": 893,
      "도록": 894,
      "어떤": 895,
      "포스트": 896,
      "제목>>": 897,
      "다시": 898,
      "마십시오": 899,
      "문구": 900,
      "방법": 901,
      "요약": 902,
      "주실": 903,
      "세요,": 904,
      "<<제목>>": 905,
      "\",": 906,
      "*.": 907,
      "께끼": 908,
      "노래": 909,
      "변경": 910,
      "수수": 911,
      "야기": 912,
      "이하": 913,
      "이야기": 914,
      "제품": 915,
      "수수께끼": 916,
      "',": 917,
      "각괄호": 918,
      "구성": 919,
      "는지": 920,
      "대괄호": 921,
      "만들": 922,
      "세이": 923,
      "에세이": 924,
      "위의": 925,
      "이것": 926,
      "20": 927,
      "``": 928,
      "그대": 929,
      "또한": 930,
      "생각": 931,
      "써라": 932,
      "아니": 933,
      "아래": 934,
      "여행": 935,
      "합니다:": 936,
      "그대로": 937,
      "4개의": 938,
      "것입니다": 939,
      "그리": 940,
      "도와": 941,
      "미국": 942,
      "버전": 943,
      "부분": 944,
      "어떻": 945,
      "회사": 946,
      "응답의": 947,
      "다음,": 948,
      "이하로": 949,
      "관한": 950,
      "미만": 951,
      "적인": 952,
      "제안": 953,
      "지만": 954,
      "출력": 955,
      "한다": 956,
      "후기": 957,
      "P.P.S": 958,
      "2개의": 959,
      "게임": 960,
      "남자": 961,
      "디어": 962,
      "마라": 963,
      "목록": 964,
      "아이": 965,
      "일정": 966,
      "스타일": 967,
      "같이": 968,
      "기울": 969,
      "농담": 970,
      "니까": 971,
      "도입니다": 972,
      "되,": 973,
      "됩니다": 974,
      "리머": 975,
      "마도입니다": 976,
      "아야": 977,
      "아마도입니다": 978,
      "엄마": 979,
      "역사": 980,
      "예입니다": 981,
      "요입니다": 982,
      "을까": 983,
      "이탤": 984,
      "흥미": 985,
      "아니요입니다": 986,
      "그리고": 987,
      "제안서": 988,
      "리머릭": 989,
      "이탤릭": 990,
      "'라는": 991,
      "ar": 992,
      "끝내": 993,
      "나타": 994,
      "니어": 995,
      "단점": 996,
      "라고": 997,
      "라인": 998,
      "아무": 999,
      "없이": 1000,
      "으며,": 1001,
      "조언": 1002,
      "편지": 1003,
      "프트": 1004,
      "학생": 1005,
      "십시오:": 1006,
      "텍스트*": 1007,
      "50": 1008,
      "5개의": 1009,
      "[주": 1010,
      "en": 1011,
      "그녀": 1012,
      "대상": 1013,
      "대통": 1014,
      "메일": 1015,
      "모든": 1016,
      "얼마": 1017,
      "예:": 1018,
      "오직": 1019,
      "이력": 1020,
      "이메일": 1021,
      "장단점": 1022,
      "전문": 1023,
      "제시": 1024,
      "질문": 1025,
      "코드": 1026,
      "트업": 1027,
      "프로": 1028,
      "피치": 1029,
      "섹션*.": 1030,
      "...": 1031,
      "이상한": 1032,
      "하나의": 1033,
      "스타트업": 1034,
      "대통령": 1035,
      "*이탤릭": 1036,
      "300단어": 1037,
      "ch": 1038,
      "가진": 1039,
      "구문": 1040,
      "그것": 1041,
      "기사": 1042,
      "나열": 1043,
      "내용": 1044,
      "드릴": 1045,
      "디오": 1046,
      "명시": 1047,
      "부정": 1048,
      "사실": 1049,
      "소]": 1050,
      "소개": 1051,
      "소프트": 1052,
      "습니까": 1053,
      "십대": 1054,
      "언급": 1055,
      "엔지": 1056,
      "여야": 1057,
      "웨어": 1058,
      "이유": 1059,
      "처럼": 1060,
      "처음": 1061,
      "친구": 1062,
      "페이": 1063,
      "필요": 1064,
      "하이": 1065,
      "확장": 1066,
      "이상의": 1067,
      "P.S.": 1068,
      "```": 1069,
      "도와드릴": 1070,
      "기울임": 1071,
      "나타나": 1072,
      "[주소]": 1073,
      "이력서": 1074,
      "엔지니어": 1075,
      "!\"": 1076,
      "(******": 1077,
      "30": 1078,
      "5문장": 1079,
      "on": 1080,
      "가장": 1081,
      "게시": 1082,
      "기소개": 1083,
      "꺾쇠": 1084,
      "년의": 1085,
      "니펫": 1086,
      "다는": 1087,
      "다양": 1088,
      "드시": 1089,
      "때,": 1090,
      "려고": 1091,
      "마무": 1092,
      "문서": 1093,
      "문자": 1094,
      "바꾸": 1095,
      "배우": 1096,
      "보다": 1097,
      "비판": 1098,
      "세히": 1099,
      "스니펫": 1100,
      "시간": 1101,
      "여기": 1102,
      "여섯": 1103,
      "이션": 1104,
      "이점": 1105,
      "자기소개": 1106,
      "자세히": 1107,
      "젝트": 1108,
      "져야": 1109,
      "지역": 1110,
      "직장": 1111,
      "티어": 1112,
      "판매": 1113,
      "힌디어": 1114,
      "답변의": 1115,
      "기호가": 1116,
      "섹션*": 1117,
      "....": 1118,
      "또한,": 1119,
      "아래의": 1120,
      "을까요": 1121,
      "프로젝트": 1122,
      "소프트웨어": 1123,
      "하이쿠": 1124,
      "(******)": 1125,
      "게시물": 1126,
      "마무리": 1127,
      "자기소개서": 1128,
      "\"섹션": 1129,
      "\"우리": 1130,
      "19": 1131,
      "200단어": 1132,
      "X\"": 1133,
      "[여기": 1134,
      "au": 1135,
      "가능": 1136,
      "계획": 1137,
      "고객": 1138,
      "고양": 1139,
      "고의": 1140,
      "과학": 1141,
      "구두": 1142,
      "그런": 1143,
      "다고": 1144,
      "데이": 1145,
      "동물": 1146,
      "등장": 1147,
      "따라": 1148,
      "마지": 1149,
      "만드": 1150,
      "매우": 1151,
      "모델": 1152,
      "반드시": 1153,
      "비스": 1154,
      "비디오": 1155,
      "사이": 1156,
      "서비스": 1157,
      "선택": 1158,
      "성자": 1159,
      "세계": 1160,
      "세부정": 1161,
      "수학": 1162,
      "신문": 1163,
      "어로": 1164,
      "어린": 1165,
      "영향": 1166,
      "영화": 1167,
      "오늘": 1168,
      "위치": 1169,
      "이해": 1170,
      "인트": 1171,
      "일어": 1172,
      "입력": 1173,
      "작업": 1174,
      "전적": 1175,
      "주얼": 1176,
      "주세요": 1177,
      "지의": 1178,
      "최고의": 1179,
      "추신": 1180,
      "캐주얼": 1181,
      "템플": 1182,
      "트윗": 1183,
      "평균": 1184,
      "포인트": 1185,
      "형태": 1186,
      "세요]": 1187,
      "기호(******)": 1188,
      "섹션의": 1189,
      "000": 1190,
      "하나하나": 1191,
      "10대": 1192,
      "마라티어": 1193,
      "50단어": 1194,
      "얼마나": 1195,
      "고양이": 1196,
      "구두점": 1197,
      "마지막": 1198,
      "세부정보": 1199,
      "템플릿": 1200,
      "*이것": 1201,
      "*기울임": 1202,
      "1입니다": 1203,
      "2개": 1204,
      "400단어": 1205,
      "7문장": 1206,
      "?\"": 1207,
      "?\"라는": 1208,
      "Co": 1209,
      "ML": 1210,
      "an": 1211,
      "er": 1212,
      "hen": 1213,
      "le": 1214,
      "oo": 1215,
      "or": 1216,
      "th": 1217,
      "가져야": 1218,
      "각각": 1219,
      "거나": 1220,
      "결과": 1221,
      "경험": 1222,
      "과정": 1223,
      "그러": 1224,
      "기능": 1225,
      "논문": 1226,
      "니스": 1227,
      "다섯": 1228,
      "대학": 1229,
      "대화": 1230,
      "도움": 1231,
      "독일어": 1232,
      "레스": 1233,
      "루브": 1234,
      "루어": 1235,
      "리아": 1236,
      "리어": 1237,
      "마법": 1238,
      "미디어": 1239,
      "바꿈": 1240,
      "보여": 1241,
      "블록": 1242,
      "사기": 1243,
      "설계": 1244,
      "소년": 1245,
      "소셜": 1246,
      "수업": 1247,
      "시장": 1248,
      "시키": 1249,
      "아기": 1250,
      "아름": 1251,
      "애완": 1252,
      "어서": 1253,
      "연구": 1254,
      "온라인": 1255,
      "으면": 1256,
      "으세요": 1257,
      "음식": 1258,
      "이겼": 1259,
      "이루어": 1260,
      "일본": 1261,
      "일부": 1262,
      "일자리": 1263,
      "자신": 1264,
      "절차": 1265,
      "주요": 1266,
      "중국": 1267,
      "즉,": 1268,
      "지원": 1269,
      "청중": 1270,
      "최신": 1271,
      "커피": 1272,
      "컴퓨": 1273,
      "평가": 1274,
      "프레": 1275,
      "학교": 1276,
      "해서": 1277,
      "해줘": 1278,
      "확인": 1279,
      "후,": 1280,
      "합니다,": 1281,
      "십시오,": 1282,
      "10문장": 1283,
      "******.": 1284,
      "페이지": 1285,
      "어린이": 1286,
      "루브릭": 1287,
      "컴퓨터": 1288,
      "\"열": 1289,
      "'나": 1290,
      "'내": 1291,
      "*,": 1292,
      "1개의": 1293,
      "100단어": 1294,
      "150단어": 1295,
      "2번": 1296,
      "2입니다": 1297,
      "40": 1298,
      "6문장": 1299,
      "7일": 1300,
      "7개의": 1301,
      "8개의": 1302,
      "AP": 1303,
      "Cau": 1304,
      "Goo": 1305,
      "Sch": 1306,
      "[섹션": 1307,
      "[이름": 1308,
      "am": 1309,
      "av": 1310,
      "ay": 1311,
      "gle": 1312,
      "ic": 1313,
      "ian": 1314,
      "nam": 1315,
      "pp": 1316,
      "ser": 1317,
      "war": 1318,
      "y–": 1319,
      "가안": 1320,
      "간단": 1321,
      "간의": 1322,
      "감정": 1323,
      "강아": 1324,
      "강의": 1325,
      "개발": 1326,
      "개요": 1327,
      "걸쳐": 1328,
      "경제": 1329,
      "공식": 1330,
      "관리": 1331,
      "관심": 1332,
      "구글": 1333,
      "구어로": 1334,
      "국가안": 1335,
      "그냥": 1336,
      "그래": 1337,
      "기저": 1338,
      "껍질": 1339,
      "끝나": 1340,
      "능력": 1341,
      "다면": 1342,
      "다움": 1343,
      "단계": 1344,
      "당구": 1345,
      "대체": 1346,
      "던질": 1347,
      "들어": 1348,
      "등식": 1349,
      "등학교": 1350,
      "디지": 1351,
      "따르": 1352,
      "랑스": 1353,
      "레이션": 1354,
      "려면": 1355,
      "로,": 1356,
      "로]": 1357,
      "루구어로": 1358,
      "리뷰": 1359,
      "리의": 1360,
      "메모": 1361,
      "명의": 1362,
      "모두": 1363,
      "목표": 1364,
      "문제": 1365,
      "미터": 1366,
      "반지의": 1367,
      "변호": 1368,
      "보좌": 1369,
      "부입니다": 1370,
      "부등식": 1371,
      "분야": 1372,
      "사업": 1373,
      "사항": 1374,
      "생성": 1375,
      "설득": 1376,
      "세금": 1377,
      "세상": 1378,
      "센트": 1379,
      "셰익": 1380,
      "수행": 1381,
      "스터": 1382,
      "스티": 1383,
      "스피": 1384,
      "시대": 1385,
      "시의": 1386,
      "애플": 1387,
      "양성자": 1388,
      "어도": 1389,
      "어조": 1390,
      "여러": 1391,
      "예시": 1392,
      "옵션": 1393,
      "외부": 1394,
      "우유": 1395,
      "원인": 1396,
      "의자": 1397,
      "인터": 1398,
      "일반": 1399,
      "자바": 1400,
      "자인": 1401,
      "적어도": 1402,
      "전반": 1403,
      "전쟁": 1404,
      "전화": 1405,
      "정신": 1406,
      "제왕": 1407,
      "졸업": 1408,
      "주석": 1409,
      "주제": 1410,
      "째,": 1411,
      "차이점": 1412,
      "최종": 1413,
      "취약": 1414,
      "태양": 1415,
      "텔루구어로": 1416,
      "툴사": 1417,
      "특히": 1418,
      "파일": 1419,
      "편안": 1420,
      "평화": 1421,
      "프랑스": 1422,
      "학자": 1423,
      "함께": 1424,
      "해,": 1425,
      "해줄": 1426,
      "행동": 1427,
      "향수": 1428,
      "현재": 1429,
      "화난": 1430,
      "환경": 1431,
      "훈련": 1432,
      "습니다:": 1433,
      "스트레스": 1434,
      "감싸인": 1435,
      "감싸져": 1436,
      "10개의": 1437,
      "<<제목>>.": 1438,
      "<<제목>>입니다": 1439,
      "구성원": 1440,
      "20문장": 1441,
      "도와줄": 1442,
      "지만,": 1443,
      "스타일의": 1444,
      "전문가": 1445,
      "chy–": 1446,
      "19세": 1447,
      "데이터": 1448,
      "Cohen": 1449,
      "그러나": 1450,
      "논문의": 1451,
      "마법사": 1452,
      "아름다움": 1453,
      "애완동물": 1454,
      "\"열쇠": 1455,
      "Cauchy–": 1456,
      "Google": 1457,
      "Schwar": 1458,
      "[이름]": 1459,
      "name": 1460,
      "강아지": 1461,
      "국가안보": 1462,
      "기저귀": 1463,
      "끝나야": 1464,
      "디지털": 1465,
      "변호사": 1466,
      "보좌관": 1467,
      "셰익스피": 1468,
      "특히,": 1469,
      "Cauchy–Schwar": 1470,
      "셰익스피어": 1471,
      "Cauchy–Schwarz": 1472,
      "\"내": 1473,
      "\"더": 1474,
      "\"버": 1475,
      "\"수": 1476,
      "\"의": 1477,
      "\"죽": 1478,
      "\"당신": 1479,
      "\"사람": 1480,
      "\"회사": 1481,
      "']": 1482,
      "'강": 1483,
      "'죽": 1484,
      "--": 1485,
      "-4": 1486,
      ".',": 1487,
      "1,": 1488,
      "13": 1489,
      "15": 1490,
      "16": 1491,
      "1]": 1492,
      "1회": 1493,
      "15개의": 1494,
      "17문장": 1495,
      "1*,": 1496,
      "1-4": 1497,
      "2)": 1498,
      "28": 1499,
      "2]": 1500,
      "2회": 1501,
      "25문장": 1502,
      "2000": 1503,
      "32": 1504,
      "3번": 1505,
      "3회": 1506,
      "3가지": 1507,
      "3년의": 1508,
      "350단어": 1509,
      "54": 1510,
      "5개": 1511,
      "5회": 1512,
      "60": 1513,
      "600": 1514,
      "600단어": 1515,
      "8번": 1516,
      "800단어": 1517,
      "App": 1518,
      "CB": 1519,
      "DR": 1520,
      "ECB": 1521,
      "HF": 1522,
      "HT": 1523,
      "II": 1524,
      "Jav": 1525,
      "LDR": 1526,
      "Pi": 1527,
      "RE": 1528,
      "SRE": 1529,
      "TC": 1530,
      "TLDR": 1531,
      "UTC": 1532,
      "VHF": 1533,
      "XML": 1534,
      "[u": 1535,
      "[코드": 1536,
      "ac": 1537,
      "a라는": 1538,
      "con": 1539,
      "el": 1540,
      "ik": 1541,
      "il": 1542,
      "ip": 1543,
      "jian": 1544,
      "of": 1545,
      "wik": 1546,
      "xel": 1547,
      "가격": 1548,
      "가요": 1549,
      "가족": 1550,
      "가질": 1551,
      "간결": 1552,
      "간달": 1553,
      "강한": 1554,
      "거리": 1555,
      "건강": 1556,
      "게\"라는": 1557,
      "격투": 1558,
      "결혼": 1559,
      "경고": 1560,
      "경력": 1561,
      "경찰": 1562,
      "계산": 1563,
      "계속": 1564,
      "고려": 1565,
      "고등학교": 1566,
      "골든": 1567,
      "공부": 1568,
      "공의": 1569,
      "관계": 1570,
      "관련": 1571,
      "관점": 1572,
      "교육": 1573,
      "구매": 1574,
      "구자": 1575,
      "국어": 1576,
      "그룹": 1577,
      "긍정": 1578,
      "기,": 1579,
      "기다": 1580,
      "기에": 1581,
      "기후": 1582,
      "길이": 1583,
      "까요": 1584,
      "까지": 1585,
      "나나": 1586,
      "나누": 1587,
      "나다": 1588,
      "난감": 1589,
      "남어": 1590,
      "널드": 1591,
      "넷의": 1592,
      "농작": 1593,
      "높이": 1594,
      "누가": 1595,
      "뉴스": 1596,
      "뉴욕": 1597,
      "는가": 1598,
      "니아": 1599,
      "다'": 1600,
      "다\"라는": 1601,
      "대중": 1602,
      "대학생": 1603,
      "도널드": 1604,
      "돌려": 1605,
      "동안": 1606,
      "동의": 1607,
      "동전": 1608,
      "드위치": 1609,
      "디자": 1610,
      "따뜻": 1611,
      "때문": 1612,
      "똑똑": 1613,
      "라디오": 1614,
      "랍어": 1615,
      "랍니다": 1616,
      "랜드": 1617,
      "러디": 1618,
      "럼프": 1619,
      "레드": 1620,
      "레이": 1621,
      "레터": 1622,
      "로드": 1623,
      "롬프트": 1624,
      "루프": 1625,
      "류장": 1626,
      "르헨": 1627,
      "릅니다": 1628,
      "리버": 1629,
      "리터": 1630,
      "리텔": 1631,
      "리트": 1632,
      "리라는": 1633,
      "리학자": 1634,
      "링크": 1635,
      "마사": 1636,
      "마천": 1637,
      "마케": 1638,
      "마트": 1639,
      "마리의": 1640,
      "만나": 1641,
      "만날": 1642,
      "만한": 1643,
      "말씀": 1644,
      "매력": 1645,
      "멜버": 1646,
      "명\"": 1647,
      "뭐라고": 1648,
      "미의": 1649,
      "미치": 1650,
      "미친": 1651,
      "민지": 1652,
      "바이": 1653,
      "바나나": 1654,
      "바랍니다": 1655,
      "박테": 1656,
      "방식": 1657,
      "방정": 1658,
      "번역": 1659,
      "베트": 1660,
      "벼룩": 1661,
      "보낼": 1662,
      "보유": 1663,
      "부르": 1664,
      "부부": 1665,
      "부터": 1666,
      "부\"라는": 1667,
      "븐슨": 1668,
      "비교": 1669,
      "비슷": 1670,
      "비즈": 1671,
      "사고": 1672,
      "사막": 1673,
      "사진": 1674,
      "상상": 1675,
      "상큼": 1676,
      "상향": 1677,
      "샌드위치": 1678,
      "생명": 1679,
      "선거": 1680,
      "선사": 1681,
      "선수": 1682,
      "선체": 1683,
      "설정": 1684,
      "성과": 1685,
      "성의": 1686,
      "소설": 1687,
      "소의": 1688,
      "소년의": 1689,
      "손상": 1690,
      "쇼핑": 1691,
      "수정": 1692,
      "스와": 1693,
      "스토": 1694,
      "스레드": 1695,
      "스마트": 1696,
      "슬루프": 1697,
      "시골": 1698,
      "시아": 1699,
      "식민지": 1700,
      "신발": 1701,
      "신입": 1702,
      "신제품": 1703,
      "심리학자": 1704,
      "싸움": 1705,
      "아닌": 1706,
      "아티": 1707,
      "아하": 1708,
      "아할": 1709,
      "아랍어": 1710,
      "아르헨": 1711,
      "알렉": 1712,
      "알려": 1713,
      "앰버": 1714,
      "양육": 1715,
      "어느": 1716,
      "어요": 1717,
      "에,": 1718,
      "영국": 1719,
      "올해": 1720,
      "용도": 1721,
      "워크": 1722,
      "웹사이": 1723,
      "유사": 1724,
      "유의": 1725,
      "유치": 1726,
      "유형": 1727,
      "으며": 1728,
      "은색": 1729,
      "은지": 1730,
      "음악": 1731,
      "의미": 1732,
      "이길": 1733,
      "이너": 1734,
      "이렇": 1735,
      "익사": 1736,
      "인공": 1737,
      "인용": 1738,
      "인플": 1739,
      "입니까": 1740,
      "자연": 1741,
      "자주": 1742,
      "자체": 1743,
      "자'라는": 1744,
      "작자": 1745,
      "장애": 1746,
      "장난감": 1747,
      "재능": 1748,
      "적입니까": 1749,
      "전공": 1750,
      "전기": 1751,
      "정부": 1752,
      "정책": 1753,
      "정류장": 1754,
      "제외": 1755,
      "젠테": 1756,
      "젤다": 1757,
      "조니": 1758,
      "조사": 1759,
      "종류": 1760,
      "주기": 1761,
      "주의": 1762,
      "주십시오,": 1763,
      "줄거리": 1764,
      "중요": 1765,
      "중성자": 1766,
      "증가": 1767,
      "증명": 1768,
      "지침": 1769,
      "직업": 1770,
      "집합": 1771,
      "창의": 1772,
      "첫째,": 1773,
      "청소년": 1774,
      "체*": 1775,
      "체입니다": 1776,
      "최대": 1777,
      "추천": 1778,
      "축제": 1779,
      "충분": 1780,
      "친화": 1781,
      "침략": 1782,
      "칸나다": 1783,
      "캡슐": 1784,
      "커버": 1785,
      "코딩": 1786,
      "코틀": 1787,
      "테니스": 1788,
      "트럼프": 1789,
      "티나": 1790,
      "패러디": 1791,
      "편의": 1792,
      "편향": 1793,
      "포르": 1794,
      "품질": 1795,
      "프롬프트": 1796,
      "피하": 1797,
      "학술": 1798,
      "한지": 1799,
      "항목": 1800,
      "항상": 1801,
      "해:": 1802,
      "향상": 1803,
      "허드": 1804,
      "현실": 1805,
      "호텔": 1806,
      "홍콩": 1807,
      "화가": 1808,
      "힐리어": 1809,
      "으로,": 1810,
      "사용자": 1811,
      "기호입니다": 1812,
      "다음의": 1813,
      "마세요:": 1814,
      "감싸진": 1815,
      "이름의": 1816,
      "***.": 1817,
      "대해서": 1818,
      "10센트": 1819,
      "이야기의": 1820,
      "202": 1821,
      "20단어": 1822,
      "20개의": 1823,
      "한다:": 1824,
      "기울여": 1825,
      "이탤릭체": 1826,
      "나타내": 1827,
      "아무것": 1828,
      "ent": 1829,
      "얼마인가요": 1830,
      "대통령의": 1831,
      "*이탤릭체*": 1832,
      "구문*": 1833,
      "사실인가요": 1834,
      "페이스": 1835,
      "```JSON": 1836,
      "[주소],": 1837,
      "엔지니어의": 1838,
      "30문장": 1839,
      "....]": 1840,
      "만드세요": 1841,
      "사이의": 1842,
      "세계의": 1843,
      "포인트입니다": 1844,
      "000원인": 1845,
      "10대의": 1846,
      "*기울임꼴": 1847,
      "이루어져야": 1848,
      "일본의": 1849,
      "프레젠테": 1850,
      "sername": 1851,
      "그래픽": 1852,
      "껍질의": 1853,
      "스티븐슨": 1854,
      "인터넷의": 1855,
      "취약점": 1856,
      "태양계": 1857,
      "19세기": 1858,
      "\"열쇠\"라는": 1859,
      "16세": 1860,
      "1-48": 1861,
      "2000년": 1862,
      "HTML": 1863,
      "Pixel": 1864,
      "[username": 1865,
      "jiang": 1866,
      "간달프": 1867,
      "경고주의": 1868,
      "구자라": 1869,
      "기다리": 1870,
      "농작물": 1871,
      "디자이너": 1872,
      "라디오파": 1873,
      "리텔링": 1874,
      "리트리버": 1875,
      "마케팅": 1876,
      "멜버른": 1877,
      "바이든": 1878,
      "박테리아": 1879,
      "방정식": 1880,
      "베트남어": 1881,
      "비즈니스": 1882,
      "스와힐리어": 1883,
      "스토리텔링": 1884,
      "스마트폰": 1885,
      "아르헨티나": 1886,
      "웹사이트": 1887,
      "유치원": 1888,
      "유형의": 1889,
      "인플레이션": 1890,
      "중성자의": 1891,
      "집합체입니다": 1892,
      "코틀린": 1893,
      "트럼프의": 1894,
      "프레젠테이션": 1895,
      "\"6": 1896,
      "\"B": 1897,
      "\"N": 1898,
      "\"h": 1899,
      "\"s": 1900,
      "\"가": 1901,
      "\"결": 1902,
      "\"공": 1903,
      "\"그": 1904,
      "\"나": 1905,
      "\"노": 1906,
      "\"녹": 1907,
      "\"농": 1908,
      "\"랩": 1909,
      "\"무": 1910,
      "\"발": 1911,
      "\"방": 1912,
      "\"법": 1913,
      "\"별": 1914,
      "\"살": 1915,
      "\"숲": 1916,
      "\"싱": 1917,
      "\"앱": 1918,
      "\"에": 1919,
      "\"옳": 1920,
      "\"우": 1921,
      "\"운": 1922,
      "\"위": 1923,
      "\"있": 1924,
      "\"잉": 1925,
      "\"접": 1926,
      "\"채": 1927,
      "\"체": 1928,
      "\"폭": 1929,
      "\"피": 1930,
      "\"혁": 1931,
      "\"홈": 1932,
      "\"회": 1933,
      "\"사용": 1934,
      "\"최소": 1935,
      "\"다른": 1936,
      "\"추가": 1937,
      "\"어떤": 1938,
      "\"요약": 1939,
      "\"이야기": 1940,
      "\"수수께끼": 1941,
      "\"그리": 1942,
      "\"대통령": 1943,
      "\"도와드릴": 1944,
      "\"시간": 1945,
      "\"프로젝트": 1946,
      "\"고양이": 1947,
      "\"결과": 1948,
      "\"경제": 1949,
      "\"세금": 1950,
      "\"세상": 1951,
      "\"파일": 1952,
      "\"평화": 1953,
      "\"그러나": 1954,
      "\"마법사": 1955,
      "\"계산": 1956,
      "\"고려": 1957,
      "\"관계": 1958,
      "\"기후": 1959,
      "\"마천": 1960,
      "\"사진": 1961,
      "\"정류장": 1962,
      "\"취약점": 1963,
      "\"아르헨티나": 1964,
      "')": 1965,
      "'B": 1966,
      "'개": 1967,
      "'답": 1968,
      "'도": 1969,
      "'문": 1970,
      "'보": 1971,
      "'비": 1972,
      "'사": 1973,
      "'슬": 1974,
      "'아": 1975,
      "'예": 1976,
      "'위": 1977,
      "'의": 1978,
      "'이": 1979,
      "'저": 1980,
      "'점": 1981,
      "'지": 1982,
      "'타": 1983,
      "'포": 1984,
      "'하": 1985,
      "'섹션": 1986,
      "'대답": 1987,
      "'JSON": 1988,
      "'구성": 1989,
      "'아니": 1990,
      "'일정": 1991,
      "'ar": 1992,
      "'가능": 1993,
      "'대학": 1994,
      "'경제": 1995,
      "'관리": 1996,
      "'목표": 1997,
      "'스트레스": 1998,
      "'경찰": 1999,
      "'미친": 2000,
      "'벼룩": 2001,
      "'선사": 2002,
      "'익사": 2003,
      "'축제": 2004,
      "'침략": 2005,
      "'패러디": 2006,
      "(1": 2007,
      "(3": 2008,
      "(a": 2009,
      "(각": 2010,
      "(노": 2011,
      "(단": 2012,
      "(인": 2013,
      "(추": 2014,
      "(섹션": 2015,
      "(기울": 2016,
      "(```": 2017,
      "(5문장": 2018,
      "(구두점": 2019,
      "('내": 2020,
      "(100단어": 2021,
      "(2)": 2022,
      ").": 2023,
      "):": 2024,
      ")여야": 2025,
      "*나": 2026,
      "*해": 2027,
      "*섹션": 2028,
      "*표시": 2029,
      "*마크다운": 2030,
      "*쉼표": 2031,
      "*재미있": 2032,
      "*텍스트*": 2033,
      "*적어도": 2034,
      "*3년의": 2035,
      "*바나나": 2036,
      "*시골": 2037,
      "*기울여": 2038,
      "*).": 2039,
      "+1": 2040,
      "+00": 2041,
      ",_": 2042,
      ".5": 2043,
      ".***": 2044,
      ".or": 2045,
      ".wik": 2046,
      ".')": 2047,
      "//": 2048,
      "/2": 2049,
      "/R": 2050,
      "/굵": 2051,
      "/강의": 2052,
      "/wik": 2053,
      "05": 2054,
      "17": 2055,
      "1:": 2056,
      "1과": 2057,
      "1부": 2058,
      "1의": 2059,
      "1문장": 2060,
      "100": 2061,
      "12개의": 2062,
      "1200단어": 2063,
      "11개의": 2064,
      "11,": 2065,
      "120단어": 2066,
      "1+1": 2067,
      "1.5": 2068,
      "1/2": 2069,
      "2*": 2070,
      "25": 2071,
      "2:": 2072,
      "2권": 2073,
      "2부": 2074,
      "2의": 2075,
      "2차": 2076,
      "2문장": 2077,
      "2단락": 2078,
      "250": 2079,
      "25개의": 2080,
      "2*,": 2081,
      "36": 2082,
      "39": 2083,
      "3:": 2084,
      "3A": 2085,
      "3개": 2086,
      "3권": 2087,
      "3년": 2088,
      "3부": 2089,
      "3일": 2090,
      "3문장": 2091,
      "300": 2092,
      "3*.": 2093,
      "3부분": 2094,
      "3마리의": 2095,
      "31-48": 2096,
      "4,": 2097,
      "45": 2098,
      "49": 2099,
      "4개": 2100,
      "4번": 2101,
      "4부": 2102,
      "56": 2103,
      "5부": 2104,
      "5분": 2105,
      "5일": 2106,
      "500단어": 2107,
      "51입니다": 2108,
      "52입니다": 2109,
      "5단계": 2110,
      "67": 2111,
      "6칼": 2112,
      "6학": 2113,
      "6인가": 2114,
      "7,": 2115,
      "7개": 2116,
      "700": 2117,
      "7년의": 2118,
      "9개의": 2119,
      ":28": 2120,
      "://": 2121,
      ":05": 2122,
      "<b": 2123,
      "=3": 2124,
      "AD": 2125,
      "AI": 2126,
      "Am": 2127,
      "BM": 2128,
      "Bi": 2129,
      "Bu": 2130,
      "CI": 2131,
      "C',": 2132,
      "Dar": 2133,
      "Fac": 2134,
      "GM": 2135,
      "Gl": 2136,
      "HD": 2137,
      "Ha": 2138,
      "Ho": 2139,
      "IL": 2140,
      "IO": 2141,
      "IQ": 2142,
      "IS": 2143,
      "I의": 2144,
      "I,_": 2145,
      "IBM": 2146,
      "Je": 2147,
      "Kar": 2148,
      "Le": 2149,
      "Lu": 2150,
      "Lil": 2151,
      "Mo": 2152,
      "Mar": 2153,
      "Mic": 2154,
      "NY": 2155,
      "On": 2156,
      "Pr": 2157,
      "Py": 2158,
      "St": 2159,
      "SAP": 2160,
      "TV": 2161,
      "Th": 2162,
      "Tr": 2163,
      "UCI": 2164,
      "Var": 2165,
      "Vent": 2166,
      "X'": 2167,
      "[d": 2168,
      "[j": 2169,
      "[প": 2170,
      "[시": 2171,
      "[조": 2172,
      "[에세이": 2173,
      "[질문": 2174,
      "[au": 2175,
      "[위치": 2176,
      "['나": 2177,
      "[전화": 2178,
      "[name": 2179,
      "[가격": 2180,
      "[도널드": 2181,
      "[웹사이트": 2182,
      "['개": 2183,
      "_II": 2184,
      "_of": 2185,
      "_Tr": 2186,
      "ad": 2187,
      "as": 2188,
      "at": 2189,
      "az": 2190,
      "a'의": 2191,
      "a.or": 2192,
      "b)": 2193,
      "b일": 2194,
      "boo": 2195,
      "cá": 2196,
      "củ": 2197,
      "c의": 2198,
      "cic": 2199,
      "di": 2200,
      "do": 2201,
      "dạ": 2202,
      "day": 2203,
      "da라는": 2204,
      "d_II": 2205,
      "e,": 2206,
      "e]": 2207,
      "et": 2208,
      "e라는": 2209,
      "eboo": 2210,
      "edi": 2211,
      "fac": 2212,
      "g/wik": 2213,
      "hi": 2214,
      "iu": 2215,
      "ith": 2216,
      "i\"의": 2217,
      "i/R": 2218,
      "k,": 2219,
      "ks": 2220,
      "kdo": 2221,
      "lo": 2222,
      "là": 2223,
      "lau": 2224,
      "lian": 2225,
      "li\"의": 2226,
      "mẹ": 2227,
      "mon": 2228,
      "ne": 2229,
      "nt": 2230,
      "nu": 2231,
      "os": 2232,
      "oet": 2233,
      "oli\"의": 2234,
      "ps": 2235,
      "par": 2236,
      "poet": 2237,
      "r>": 2238,
      "ra": 2239,
      "rth": 2240,
      "ril": 2241,
      "ros": 2242,
      "sw": 2243,
      "s라는": 2244,
      "son": 2245,
      "t,": 2246,
      "tt": 2247,
      "tent": 2248,
      "u\"의": 2249,
      "unt": 2250,
      "ura": 2251,
      "vs": 2252,
      "vy": 2253,
      "vụ": 2254,
      "wn": 2255,
      "xy": 2256,
      "z의": 2257,
      "ôi": 2258,
      "ণ্": 2259,
      "য]": 2260,
      "ệm": 2261,
      "가,": 2262,
      "가게": 2263,
      "가난": 2264,
      "가논": 2265,
      "가르": 2266,
      "가운": 2267,
      "가의": 2268,
      "가정": 2269,
      "가치": 2270,
      "가입니다": 2271,
      "각형": 2272,
      "간다": 2273,
      "간략": 2274,
      "갈등": 2275,
      "갈색": 2276,
      "갈어": 2277,
      "감귤": 2278,
      "감기": 2279,
      "감싼": 2280,
      "감소의": 2281,
      "갑니다": 2282,
      "강력": 2283,
      "개선": 2284,
      "개인": 2285,
      "거루": 2286,
      "거부": 2287,
      "거석": 2288,
      "거품": 2289,
      "건물": 2290,
      "검토": 2291,
      "검은색": 2292,
      "게재": 2293,
      "겐'": 2294,
      "겨냥": 2295,
      "겨울": 2296,
      "겨움": 2297,
      "겨졌": 2298,
      "격자": 2299,
      "견딜": 2300,
      "결정": 2301,
      "경비": 2302,
      "경우": 2303,
      "경주": 2304,
      "계절": 2305,
      "계정": 2306,
      "고나": 2307,
      "고록": 2308,
      "고자": 2309,
      "골어": 2310,
      "곳입니다": 2311,
      "공개": 2312,
      "공격": 2313,
      "공룡": 2314,
      "공연": 2315,
      "공정": 2316,
      "공주": 2317,
      "공중": 2318,
      "공학": 2319,
      "관'": 2320,
      "관중": 2321,
      "광대": 2322,
      "괴물": 2323,
      "교수": 2324,
      "교와": 2325,
      "교의": 2326,
      "교통": 2327,
      "교회": 2328,
      "구금": 2329,
      "구스": 2330,
      "구식": 2331,
      "구의": 2332,
      "구조": 2333,
      "구체": 2334,
      "구하": 2335,
      "구현": 2336,
      "구해야": 2337,
      "구인가": 2338,
      "국민": 2339,
      "국세": 2340,
      "국의": 2341,
      "군가": 2342,
      "군사": 2343,
      "굴렸": 2344,
      "권력": 2345,
      "귀비": 2346,
      "그램": 2347,
      "그렇": 2348,
      "그의": 2349,
      "그라인": 2350,
      "극의": 2351,
      "근\",": 2352,
      "글꼴": 2353,
      "글\"라는": 2354,
      "급\"": 2355,
      "급여": 2356,
      "기계": 2357,
      "기디": 2358,
      "기립": 2359,
      "기물": 2360,
      "기본": 2361,
      "기분": 2362,
      "기쁨": 2363,
      "기술": 2364,
      "기심": 2365,
      "기억": 2366,
      "기업": 2367,
      "기여": 2368,
      "기준": 2369,
      "기차": 2370,
      "기',": 2371,
      "깊이": 2372,
      "깨닫": 2373,
      "깨어": 2374,
      "꺽쇠": 2375,
      "꿈,": 2376,
      "끼리라는": 2377,
      "나눠": 2378,
      "나뉜": 2379,
      "나달": 2380,
      "나라": 2381,
      "나르": 2382,
      "나무": 2383,
      "나쁜": 2384,
      "나이": 2385,
      "나중": 2386,
      "나탈": 2387,
      "나*.": 2388,
      "날씨": 2389,
      "날입니다": 2390,
      "남성": 2391,
      "남아": 2392,
      "낯선": 2393,
      "내년": 2394,
      "내부": 2395,
      "너무": 2396,
      "너지": 2397,
      "네덜": 2398,
      "네상": 2399,
      "네즈": 2400,
      "네트": 2401,
      "네팔": 2402,
      "녀의": 2403,
      "년대": 2404,
      "노력": 2405,
      "노인": 2406,
      "노출": 2407,
      "노그래픽": 2408,
      "놀이": 2409,
      "농장": 2410,
      "농부입니다": 2411,
      "놓친": 2412,
      "누워": 2413,
      "누구인가": 2414,
      "누군가": 2415,
      "눈의": 2416,
      "느끼": 2417,
      "는다는": 2418,
      "니파": 2419,
      "니퍼": 2420,
      "니라는": 2421,
      "닙니다": 2422,
      "다\"": 2423,
      "다르": 2424,
      "다변": 2425,
      "다윗": 2426,
      "다인": 2427,
      "다코": 2428,
      "다\",": 2429,
      "다',": 2430,
      "다'라는": 2431,
      "단일": 2432,
      "당나라": 2433,
      "대리": 2434,
      "대안": 2435,
      "대왕": 2436,
      "대일": 2437,
      "대표": 2438,
      "대부분": 2439,
      "대기업": 2440,
      "더러": 2441,
      "더링": 2442,
      "던졌": 2443,
      "던지": 2444,
      "던행": 2445,
      "데미": 2446,
      "뎁의": 2447,
      "도라": 2448,
      "도로": 2449,
      "도망": 2450,
      "도상": 2451,
      "도시": 2452,
      "도우": 2453,
      "도의": 2454,
      "도착": 2455,
      "도'라는": 2456,
      "독자": 2457,
      "돈의": 2458,
      "돌봄": 2459,
      "동기": 2460,
      "동복": 2461,
      "동화": 2462,
      "된'": 2463,
      "된\",": 2464,
      "두어로": 2465,
      "둘째,": 2466,
      "뒷마": 2467,
      "듀서": 2468,
      "드래": 2469,
      "드어": 2470,
      "드클": 2471,
      "드\"라는": 2472,
      "드웨어": 2473,
      "든지": 2474,
      "들려": 2475,
      "들\",": 2476,
      "듭니다": 2477,
      "등학생": 2478,
      "디인가요": 2479,
      "디\"라는": 2480,
      "딘가": 2481,
      "땅의": 2482,
      "땅콩": 2483,
      "떠나": 2484,
      "떠신": 2485,
      "라,": 2486,
      "라:": 2487,
      "라라": 2488,
      "라면": 2489,
      "라브": 2490,
      "라킨": 2491,
      "라텍": 2492,
      "라트": 2493,
      "라파": 2494,
      "락의자": 2495,
      "란티": 2496,
      "란드어": 2497,
      "랄,": 2498,
      "랑,": 2499,
      "래드클": 2500,
      "랫폼": 2501,
      "랭클": 2502,
      "러워": 2503,
      "러시아": 2504,
      "런던행": 2505,
      "럴드": 2506,
      "레멘": 2507,
      "레셋": 2508,
      "레인": 2509,
      "레코딩": 2510,
      "렉션": 2511,
      "렌더링": 2512,
      "려움": 2513,
      "려진": 2514,
      "령',": 2515,
      "례교의": 2516,
      "로건": 2517,
      "로리": 2518,
      "로맨": 2519,
      "로비": 2520,
      "로저": 2521,
      "로체": 2522,
      "로켓": 2523,
      "로소프트": 2524,
      "로아티": 2525,
      "론\"": 2526,
      "뢰,": 2527,
      "료의": 2528,
      "료제": 2529,
      "루미": 2530,
      "루\"라는": 2531,
      "루']": 2532,
      "르너": 2533,
      "르비": 2534,
      "르겐'": 2535,
      "르네상": 2536,
      "르두어로": 2537,
      "리,": 2538,
      "리나": 2539,
      "리석": 2540,
      "리오": 2541,
      "리움": 2542,
      "리즈": 2543,
      "리치": 2544,
      "리케": 2545,
      "리프": 2546,
      "린의": 2547,
      "림의": 2548,
      "림교와": 2549,
      "립투": 2550,
      "립리의": 2551,
      "링의": 2552,
      "마녀": 2553,
      "마을": 2554,
      "마이": 2555,
      "마주": 2556,
      "마토": 2557,
      "마스트": 2558,
      "만든": 2559,
      "만성": 2560,
      "만듭니다": 2561,
      "많이": 2562,
      "말투": 2563,
      "망아": 2564,
      "맞춰": 2565,
      "매달": 2566,
      "매일": 2567,
      "매칭": 2568,
      "맥락": 2569,
      "맥퀸": 2570,
      "머니": 2571,
      "머지": 2572,
      "먹이": 2573,
      "메시": 2574,
      "메트": 2575,
      "메네즈": 2576,
      "면,": 2577,
      "면:": 2578,
      "면접": 2579,
      "멸종": 2580,
      "명령": 2581,
      "명예": 2582,
      "명확": 2583,
      "몇몇": 2584,
      "모르": 2585,
      "모없": 2586,
      "모유": 2587,
      "모릅니다": 2588,
      "목요": 2589,
      "몬드": 2590,
      "몽구스": 2591,
      "묘기": 2592,
      "무료": 2593,
      "무슨": 2594,
      "무슬": 2595,
      "무언": 2596,
      "무염": 2597,
      "무정부": 2598,
      "묶여": 2599,
      "물리": 2600,
      "물어": 2601,
      "물학": 2602,
      "뮬레이션": 2603,
      "미디": 2604,
      "미아": 2605,
      "미용": 2606,
      "미니어": 2607,
      "민족": 2608,
      "민자'라는": 2609,
      "밀:": 2610,
      "밀라": 2611,
      "바라": 2612,
      "바른": 2613,
      "바니아": 2614,
      "반\"": 2615,
      "반대": 2616,
      "반도": 2617,
      "반지": 2618,
      "발달": 2619,
      "발점": 2620,
      "발표": 2621,
      "밤새": 2622,
      "밤잠": 2623,
      "방금": 2624,
      "방문": 2625,
      "배열": 2626,
      "배의": 2627,
      "배제": 2628,
      "배트": 2629,
      "백과": 2630,
      "버거": 2631,
      "버그": 2632,
      "버리": 2633,
      "버터": 2634,
      "버트": 2635,
      "번,": 2636,
      "번호": 2637,
      "벌레": 2638,
      "법,": 2639,
      "벗겨졌": 2640,
      "베르너": 2641,
      "벤자": 2642,
      "벤져": 2643,
      "벤트": 2644,
      "벵골어": 2645,
      "변화": 2646,
      "별명": 2647,
      "보내": 2648,
      "보낸": 2649,
      "보드": 2650,
      "보석": 2651,
      "보우": 2652,
      "보트": 2653,
      "보헤": 2654,
      "본의": 2655,
      "부과": 2656,
      "부적": 2657,
      "부츠": 2658,
      "부호": 2659,
      "부사항": 2660,
      "북미의": 2661,
      "북극의": 2662,
      "분석": 2663,
      "분유의": 2664,
      "불만": 2665,
      "불편": 2666,
      "불행": 2667,
      "불려진": 2668,
      "붙이": 2669,
      "브랜드": 2670,
      "브레멘": 2671,
      "브리치": 2672,
      "블레셋": 2673,
      "비꼬": 2674,
      "비어": 2675,
      "비트": 2676,
      "비평": 2677,
      "비행": 2678,
      "비라트": 2679,
      "비밀:": 2680,
      "빛나": 2681,
      "빠른": 2682,
      "빠릅니다": 2683,
      "쁨',": 2684,
      "사가": 2685,
      "사건": 2686,
      "사말": 2687,
      "사망": 2688,
      "사스": 2689,
      "사우": 2690,
      "사울": 2691,
      "사위": 2692,
      "사육": 2693,
      "사자": 2694,
      "사지": 2695,
      "사탕": 2696,
      "사회": 2697,
      "사라는": 2698,
      "사각형": 2699,
      "사랑,": 2700,
      "산더": 2701,
      "산음": 2702,
      "산책": 2703,
      "살',": 2704,
      "상\"": 2705,
      "상'": 2706,
      "상사": 2707,
      "상위": 2708,
      "상징": 2709,
      "색\"": 2710,
      "색상": 2711,
      "생겼": 2712,
      "생물학": 2713,
      "서\"": 2714,
      "서평": 2715,
      "석방": 2716,
      "선전": 2717,
      "설치": 2718,
      "성공": 2719,
      "성년": 2720,
      "성인": 2721,
      "성장": 2722,
      "성공의": 2723,
      "세련": 2724,
      "세우": 2725,
      "세일": 2726,
      "세르비": 2727,
      "세부사항": 2728,
      "센치": 2729,
      "셔츠": 2730,
      "소드": 2731,
      "소재": 2732,
      "소문자": 2733,
      "소유의": 2734,
      "소녀의": 2735,
      "소디\"라는": 2736,
      "속도의": 2737,
      "쇼의": 2738,
      "수동": 2739,
      "수리": 2740,
      "수백": 2741,
      "수상": 2742,
      "수염": 2743,
      "수유": 2744,
      "수확": 2745,
      "수니파": 2746,
      "수면,": 2747,
      "숫자": 2748,
      "쉬운": 2749,
      "슈퍼": 2750,
      "스'": 2751,
      "스에": 2752,
      "스웨": 2753,
      "스쿨": 2754,
      "스퀴": 2755,
      "스톱": 2756,
      "스틱": 2757,
      "스펙": 2758,
      "스프레": 2759,
      "스링크": 2760,
      "스다코": 2761,
      "스러워": 2762,
      "스메트": 2763,
      "슨의": 2764,
      "슬퍼": 2765,
      "슬로건": 2766,
      "시각": 2767,
      "시애": 2768,
      "시어": 2769,
      "시절": 2770,
      "시켰": 2771,
      "시킬": 2772,
      "시리즈": 2773,
      "시뮬레이션": 2774,
      "식물": 2775,
      "식자'라는": 2776,
      "식사라는": 2777,
      "신비": 2778,
      "신이": 2779,
      "신탁": 2780,
      "신화": 2781,
      "신뢰,": 2782,
      "실망": 2783,
      "실수": 2784,
      "실적": 2785,
      "실제": 2786,
      "실행": 2787,
      "심연": 2788,
      "심하": 2789,
      "십니까": 2790,
      "싸운": 2791,
      "쌀쌀": 2792,
      "써서": 2793,
      "써줄": 2794,
      "쓰여야": 2795,
      "쓸모없": 2796,
      "씨앗": 2797,
      "아갔": 2798,
      "아노": 2799,
      "아담": 2800,
      "아서": 2801,
      "아주": 2802,
      "아줘": 2803,
      "아카": 2804,
      "아쿠": 2805,
      "아해": 2806,
      "아홉": 2807,
      "아닙니다": 2808,
      "아라브": 2809,
      "아리움": 2810,
      "아몬드": 2811,
      "악당": 2812,
      "안녕": 2813,
      "안일": 2814,
      "안토": 2815,
      "안됩니다": 2816,
      "안락의자": 2817,
      "안서\"": 2818,
      "알리": 2819,
      "알루미": 2820,
      "알바니아": 2821,
      "애도": 2822,
      "앨범": 2823,
      "앱입니다": 2824,
      "야간": 2825,
      "야옹": 2826,
      "약속": 2827,
      "약혼": 2828,
      "양귀비": 2829,
      "어,": 2830,
      "어:": 2831,
      "어낸": 2832,
      "어라": 2833,
      "어만": 2834,
      "어오": 2835,
      "어제": 2836,
      "어졌": 2837,
      "어줄": 2838,
      "어진": 2839,
      "어쿠": 2840,
      "어필": 2841,
      "어라는": 2842,
      "어워드": 2843,
      "어디인가요": 2844,
      "어딘가": 2845,
      "어떠신": 2846,
      "어려움": 2847,
      "어리석": 2848,
      "어벤져": 2849,
      "엄버트": 2850,
      "업계": 2851,
      "업무": 2852,
      "업데이": 2853,
      "에와": 2854,
      "에이": 2855,
      "에코": 2856,
      "에피": 2857,
      "여름": 2858,
      "여부입니다": 2859,
      "역할": 2860,
      "역함": 2861,
      "역겨움": 2862,
      "연결": 2863,
      "연관": 2864,
      "연기": 2865,
      "연도": 2866,
      "연령": 2867,
      "연례": 2868,
      "연설": 2869,
      "연히": 2870,
      "염색": 2871,
      "예멘": 2872,
      "예쁜": 2873,
      "예약": 2874,
      "예측": 2875,
      "오'": 2876,
      "오:": 2877,
      "오래": 2878,
      "오르": 2879,
      "오염": 2880,
      "오프": 2881,
      "오스트": 2882,
      "올바른": 2883,
      "와이": 2884,
      "완벽": 2885,
      "완전": 2886,
      "왕의": 2887,
      "외로운": 2888,
      "요\"": 2889,
      "요,": 2890,
      "요:": 2891,
      "요구": 2892,
      "요소의": 2893,
      "요리,": 2894,
      "용',": 2895,
      "우정": 2896,
      "우주": 2897,
      "우르두어로": 2898,
      "운가요": 2899,
      "운동복": 2900,
      "워즈": 2901,
      "원료": 2902,
      "원해": 2903,
      "원한다": 2904,
      "원스톱": 2905,
      "위기": 2906,
      "위키": 2907,
      "유럽": 2908,
      "유명": 2909,
      "유익": 2910,
      "유일": 2911,
      "유지": 2912,
      "유칼": 2913,
      "으키": 2914,
      "으십시오": 2915,
      "으세요:": 2916,
      "으라고": 2917,
      "으려고": 2918,
      "은:": 2919,
      "은\",": 2920,
      "을지": 2921,
      "음반": 2922,
      "음의": 2923,
      "의\"": 2924,
      "의류": 2925,
      "이걸": 2926,
      "이나": 2927,
      "이내": 2928,
      "이란": 2929,
      "이브": 2930,
      "이정": 2931,
      "이직": 2932,
      "이커": 2933,
      "이탄": 2934,
      "이틀": 2935,
      "이혼": 2936,
      "이라는": 2937,
      "이입니다": 2938,
      "이다인": 2939,
      "이벤트": 2940,
      "익명": 2941,
      "인기": 2942,
      "인도": 2943,
      "인상": 2944,
      "인쇄": 2945,
      "인의": 2946,
      "인자": 2947,
      "인테": 2948,
      "인사말": 2949,
      "일기": 2950,
      "일상": 2951,
      "일대일": 2952,
      "일으키": 2953,
      "입증": 2954,
      "잉여": 2955,
      "자극": 2956,
      "자금": 2957,
      "자랄": 2958,
      "자랑": 2959,
      "자자": 2960,
      "자전": 2961,
      "자비어": 2962,
      "작가": 2963,
      "작년": 2964,
      "작년의": 2965,
      "잠재": 2966,
      "잡지": 2967,
      "장면": 2968,
      "장소": 2969,
      "장점": 2970,
      "장치": 2971,
      "장미의": 2972,
      "재료": 2973,
      "재창": 2974,
      "재림교와": 2975,
      "저작": 2976,
      "저장": 2977,
      "적합": 2978,
      "전시": 2979,
      "전혀": 2980,
      "전부입니다": 2981,
      "절대": 2982,
      "젊음의": 2983,
      "정당": 2984,
      "정리": 2985,
      "정말": 2986,
      "정원": 2987,
      "정체": 2988,
      "제]": 2989,
      "제국": 2990,
      "제기": 2991,
      "제도": 2992,
      "제한": 2993,
      "제54": 2994,
      "제작자": 2995,
      "제2차": 2996,
      "제니퍼": 2997,
      "젤리": 2998,
      "조금": 2999,
      "조던": 3000,
      "조정": 3001,
      "조직": 3002,
      "조타": 3003,
      "조']": 3004,
      "조교수": 3005,
      "존스": 3006,
      "종의": 3007,
      "종이입니다": 3008,
      "죠\"라는": 3009,
      "주먹": 3010,
      "주위": 3011,
      "주인": 3012,
      "주장": 3013,
      "주니어": 3014,
      "주십시오:": 3015,
      "주의자": 3016,
      "주머니": 3017,
      "주사위": 3018,
      "주어진": 3019,
      "줄의": 3020,
      "줍니다": 3021,
      "중력": 3022,
      "중세": 3023,
      "중점": 3024,
      "중>>": 3025,
      "즐기": 3026,
      "즐길": 3027,
      "증오": 3028,
      "지,": 3029,
      "지난": 3030,
      "지능": 3031,
      "지면": 3032,
      "지문": 3033,
      "지불": 3034,
      "지속": 3035,
      "지출": 3036,
      "지메네즈": 3037,
      "직위": 3038,
      "진술": 3039,
      "진지": 3040,
      "진짜": 3041,
      "진행": 3042,
      "질투": 3043,
      "질환": 3044,
      "집자": 3045,
      "집회": 3046,
      "집안일": 3047,
      "집중력": 3048,
      "쫓기": 3049,
      "쫓아갔": 3050,
      "차이": 3051,
      "착륙": 3052,
      "창출": 3053,
      "창작자": 3054,
      "채소": 3055,
      "채스터": 3056,
      "청소년의": 3057,
      "체스": 3058,
      "체코": 3059,
      "체포": 3060,
      "초래": 3061,
      "초록": 3062,
      "초안": 3063,
      "초의": 3064,
      "초점": 3065,
      "초능력": 3066,
      "초등학교": 3067,
      "초자연": 3068,
      "초등학생": 3069,
      "촉구": 3070,
      "촌'": 3071,
      "최근": 3072,
      "최초의": 3073,
      "추정": 3074,
      "추운가요": 3075,
      "출근": 3076,
      "출산": 3077,
      "출시": 3078,
      "출발점": 3079,
      "치즈": 3080,
      "치라인": 3081,
      "치료제": 3082,
      "친한": 3083,
      "침해": 3084,
      "침례교의": 3085,
      "카츄": 3086,
      "카툰": 3087,
      "카페": 3088,
      "카푸": 3089,
      "카리나": 3090,
      "카밀라": 3091,
      "캥거루": 3092,
      "커\"": 3093,
      "커플": 3094,
      "컬렉션": 3095,
      "케터": 3096,
      "케돈의": 3097,
      "코기": 3098,
      "코끼리라는": 3099,
      "코미디": 3100,
      "콘텐": 3101,
      "콧수염": 3102,
      "퀘이커": 3103,
      "퀴어": 3104,
      "퀴즈": 3105,
      "크\"": 3106,
      "크기": 3107,
      "크의": 3108,
      "크\"라는": 3109,
      "크레이": 3110,
      "크로아티": 3111,
      "큰가": 3112,
      "클까요": 3113,
      "키로": 3114,
      "타원": 3115,
      "타임": 3116,
      "타오르": 3117,
      "타이탄": 3118,
      "탄\"": 3119,
      "탄산음": 3120,
      "태국어": 3121,
      "태그라인": 3122,
      "택\"": 3123,
      "터슨의": 3124,
      "턴스에": 3125,
      "토랑": 3126,
      "토마토": 3127,
      "톤의": 3128,
      "통합": 3129,
      "투갈어": 3130,
      "투자자": 3131,
      "트:": 3132,
      "트셔츠": 3133,
      "특이": 3134,
      "특정": 3135,
      "특징": 3136,
      "틀란티": 3137,
      "틱(```": 3138,
      "팀입니다": 3139,
      "파리": 3140,
      "파크의": 3141,
      "패션": 3142,
      "퍼지": 3143,
      "퍼센트": 3144,
      "펀자비어": 3145,
      "펀치라인": 3146,
      "페더러": 3147,
      "편리": 3148,
      "편집자": 3149,
      "폐기물": 3150,
      "포드": 3151,
      "포럼": 3152,
      "포맷": 3153,
      "포장": 3154,
      "포토": 3155,
      "포스터": 3156,
      "폭넓": 3157,
      "폭풍": 3158,
      "표현": 3159,
      "표',": 3160,
      "표본의": 3161,
      "푸들": 3162,
      "풍선": 3163,
      "프로그": 3164,
      "프랭클": 3165,
      "프턴스에": 3166,
      "플랫폼": 3167,
      "픔',": 3168,
      "피해": 3169,
      "피아노": 3170,
      "피카츄": 3171,
      "피터슨의": 3172,
      "하중": 3173,
      "하향": 3174,
      "하드웨어": 3175,
      "하와이": 3176,
      "학습": 3177,
      "한,": 3178,
      "한국어": 3179,
      "한반도": 3180,
      "할인": 3181,
      "할까요": 3182,
      "해결": 3183,
      "해냈": 3184,
      "해먹": 3185,
      "해변": 3186,
      "해선": 3187,
      "해외": 3188,
      "해의": 3189,
      "해리라는": 3190,
      "핵심": 3191,
      "햄버거": 3192,
      "햄프턴스에": 3193,
      "했으며,": 3194,
      "행사": 3195,
      "향이": 3196,
      "허구의": 3197,
      "헌법": 3198,
      "헤럴드": 3199,
      "헬싱": 3200,
      "혁명": 3201,
      "혁신": 3202,
      "혐의": 3203,
      "형제": 3204,
      "호주": 3205,
      "호기심": 3206,
      "화려": 3207,
      "화',": 3208,
      "확보": 3209,
      "확실": 3210,
      "확연히": 3211,
      "환불": 3212,
      "효과": 3213,
      "훔친": 3214,
      "훼손": 3215,
      "휘장": 3216,
      "휴가": 3217,
      "흉상\"": 3218,
      "흰색": 3219,
      "히도라": 3220,
      "힘든지": 3221,
      "세요):": 3222,
      "세요*).": 3223,
      "응답(추": 3224,
      "으로부터": 3225,
      "답변)": 3226,
      "십시오(100단어": 3227,
      "입니다*": 3228,
      "입니다인": 3229,
      "입니다*.": 3230,
      "기호,": 3231,
      "기호:": 3232,
      "에서,": 3233,
      "에서의": 3234,
      "섹션(섹션": 3235,
      "섹션입니다*.": 3236,
      "습니다)": 3237,
      "습니다*": 3238,
      "습니다,": 3239,
      "형식입니다": 3240,
      "문장의": 3241,
      "나요:": 3242,
      "다른지,": 3243,
      "다운로드": 3244,
      "스트,": 3245,
      "강조/굵": 3246,
      "마세요)": 3247,
      "마세요;": 3248,
      "제목의": 3249,
      "요청:": 3250,
      "요청받": 3251,
      "*******": 3252,
      "00원": 3253,
      ".\"라는": 3254,
      "대답>>": 3255,
      "사람의": 3256,
      "이름*": 3257,
      "이름인가요": 3258,
      "이름>>": 3259,
      "이상,": 3260,
      "하나인가요": 3261,
      "재미없": 3262,
      "대해,": 3263,
      "설명,": 3264,
      "설명도": 3265,
      "설명인가": 3266,
      "텍스트의": 3267,
      "텍스트*.": 3268,
      "텍스트입니다*": 3269,
      "제공량": 3270,
      "<<내": 3271,
      "<<당신": 3272,
      "<<수수께끼": 3273,
      "<<...": 3274,
      "<<SRE": 3275,
      "<<슬루프": 3276,
      "<<코틀린": 3277,
      "<<xy": 3278,
      "<<이름>>": 3279,
      ">>입니다": 3280,
      "위해,": 3281,
      "위해서": 3282,
      "\"제안서\"": 3283,
      "무엇인가": 3284,
      "10,": 3285,
      "10개": 3286,
      "10번": 3287,
      "10세": 3288,
      "10일": 3289,
      "10가지": 3290,
      "10명의": 3291,
      "별표(******)": 3292,
      "스타워즈": 3293,
      "스타포드": 3294,
      "광고의": 3295,
      "광고주": 3296,
      "무엇인가요:": 3297,
      "먼저,": 3298,
      "포스트>>": 3299,
      "마십시오:": 3300,
      "문구인": 3301,
      "요약,": 3302,
      "이하의": 3303,
      "이하(단": 3304,
      "이야기>>입니다": 3305,
      "제품,": 3306,
      "제품의": 3307,
      "수수께끼의": 3308,
      "는지입니다": 3309,
      "20세": 3310,
      "20일": 3311,
      "20인가": 3312,
      "20명의": 3313,
      "써라,": 3314,
      "여행자": 3315,
      "그리운": 3316,
      "버전의": 3317,
      "부분의": 3318,
      "회사입니다": 3319,
      "미만)": 3320,
      "미만(5문장": 3321,
      "남자의": 3322,
      "목록의": 3323,
      "아이디어": 3324,
      "아이스링크": 3325,
      "엄마인": 3326,
      "라인인": 3327,
      "없이,": 3328,
      "편지의": 3329,
      "50문장": 3330,
      "50년대": 3331,
      "[주제]": 3332,
      "ena": 3333,
      "en.wik": 3334,
      "그녀의": 3335,
      "프로듀서": 3336,
      "프로스펙": 3337,
      "...?": 3338,
      "....\"": 3339,
      "스타트업입니다": 3340,
      "대통령인": 3341,
      "*이탤릭*": 3342,
      "chlau": 3343,
      "구문*.": 3344,
      "내용의": 3345,
      "습니까:": 3346,
      "친구였": 3347,
      "페이지의": 3348,
      "하이랄,": 3349,
      "기울임꼴": 3350,
      "30,": 3351,
      "30단어": 3352,
      "30줄의": 3353,
      "꺾쇠괄호": 3354,
      "다양성의": 3355,
      "드시트": 3356,
      "배우의": 3357,
      "배우라고": 3358,
      "시간표": 3359,
      "이션의": 3360,
      "직장인": 3361,
      "을까요,": 3362,
      "1956": 3363,
      "1950년대": 3364,
      "고객,": 3365,
      "과학임": 3366,
      "과학자": 3367,
      "그런지": 3368,
      "데이팅": 3369,
      "따라야": 3370,
      "따라오": 3371,
      "사이여야": 3372,
      "신문의": 3373,
      "영화의": 3374,
      "오늘,": 3375,
      "일어났": 3376,
      "주세요\"": 3377,
      "주세요)": 3378,
      "형태론": 3379,
      "000원": 3380,
      "?\"여야": 3381,
      "Count": 3382,
      "anne": 3383,
      "heng": 3384,
      "le,": 3385,
      "or]": 3386,
      "ore": 3387,
      "orks": 3388,
      "thon": 3389,
      "thor]": 3390,
      "경험*.": 3391,
      "기능입니다": 3392,
      "대화체": 3393,
      "레스토랑": 3394,
      "미디어의": 3395,
      "보여줍니다": 3396,
      "수업/강의": 3397,
      "아름다운": 3398,
      "애완견": 3399,
      "이루어져": 3400,
      "이루어진": 3401,
      "자신의": 3402,
      "커피숍": 3403,
      "커피의": 3404,
      "프레임": 3405,
      "페이지여야": 3406,
      "'나누": 3407,
      "'나머지": 3408,
      "40단어": 3409,
      "40문장": 3410,
      "APA": 3411,
      "API의": 3412,
      "avcic": 3413,
      "ayer": 3414,
      "aymon": 3415,
      "ica'의": 3416,
      "ppy": 3417,
      "ser,": 3418,
      "개발자": 3419,
      "개발도상": 3420,
      "관심사": 3421,
      "그래미": 3422,
      "껍질*.": 3423,
      "다면,": 3424,
      "들어가": 3425,
      "들어간": 3426,
      "들어갈": 3427,
      "려면,": 3428,
      "미터입니다": 3429,
      "분야의": 3430,
      "설득력": 3431,
      "스티브": 3432,
      "시대'라는": 3433,
      "애플리케": 3434,
      "인터페이스": 3435,
      "자바의": 3436,
      "자바>>": 3437,
      "자인:": 3438,
      "전화의": 3439,
      "취약성의": 3440,
      "툴사에": 3441,
      "툴사의": 3442,
      "평화라는": 3443,
      "학자',": 3444,
      "함께라면": 3445,
      "향수,": 3446,
      "향수입니다": 3447,
      "현재의": 3448,
      "환경,": 3449,
      "훈련사가": 3450,
      "전문가입니다": 3451,
      "마법사였": 3452,
      "\"열쇠\"": 3453,
      "Google,": 3454,
      "[이름],": 3455,
      "기저귀의": 3456,
      "기저귀입니다": 3457,
      "\"버그": 3458,
      "\"버스": 3459,
      "\"수염": 3460,
      "\"수요\"": 3461,
      "\"죽이": 3462,
      "\"회사\"라는": 3463,
      "'강'": 3464,
      "'강도'라는": 3465,
      "'죽이": 3466,
      "13개": 3467,
      "13문장": 3468,
      "15센치": 3469,
      "15000원": 3470,
      "28초": 3471,
      "32마리의": 3472,
      "32그램": 3473,
      "54000원인": 3474,
      "60문장": 3475,
      "600자": 3476,
      "Apple,": 3477,
      "ECB의": 3478,
      "Java": 3479,
      "Java라는": 3480,
      "UTC+00": 3481,
      "content": 3482,
      "ipedi": 3483,
      "ipoli\"의": 3484,
      "oft,": 3485,
      "격투*.": 3486,
      "높이였": 3487,
      "대중교통": 3488,
      "돌려받": 3489,
      "돌려주": 3490,
      "동의어라는": 3491,
      "레이튼": 3492,
      "로드니라는": 3493,
      "리터당": 3494,
      "리터의": 3495,
      "링크,": 3496,
      "마천루": 3497,
      "벼룩시장": 3498,
      "부부의": 3499,
      "사고팔": 3500,
      "샌드위치인가요": 3501,
      "생명공학": 3502,
      "선수인가요": 3503,
      "소설가의": 3504,
      "수정헌법": 3505,
      "시아파": 3506,
      "신발의": 3507,
      "싸움,": 3508,
      "아티스트,": 3509,
      "알렉스": 3510,
      "알렉산더": 3511,
      "워크숍": 3512,
      "음악가,": 3513,
      "인공지능": 3514,
      "인용구": 3515,
      "인용부호": 3516,
      "장애의": 3517,
      "장애인의": 3518,
      "적입니까,": 3519,
      "정책,": 3520,
      "제외)": 3521,
      "젤다,": 3522,
      "종류의": 3523,
      "축제라는": 3524,
      "충분히": 3525,
      "칸나다어로": 3526,
      "칸나다어만": 3527,
      "포르노그래픽": 3528,
      "포르투갈어": 3529,
      "항목의": 3530,
      "허드의": 3531,
      "2022": 3532,
      "2023년의": 3533,
      "기울여서": 3534,
      "페이스북": 3535,
      "1-4867": 3536,
      "[username1]": 3537,
      "[username2]": 3538,
      "구자라티": 3539,
      "구자라티어": 3540,
      "디자이너의": 3541,
      "라디오파의": 3542,
      "마케팅,": 3543,
      "바이든의": 3544,
      "박테리아의": 3545,
      "비즈니스인": 3546,
      "\"631-48": 3547,
      "\"Bril": 3548,
      "\"Nhi": 3549,
      "\"htt": 3550,
      "\"schlau": 3551,
      "\"가볍": 3552,
      "\"결론\"": 3553,
      "\"공급\"": 3554,
      "\"그게": 3555,
      "\"노크\"라는": 3556,
      "\"녹색\"": 3557,
      "\"농부\"라는": 3558,
      "\"랩소디\"라는": 3559,
      "\"무대": 3560,
      "\"발견": 3561,
      "\"방\",": 3562,
      "\"법\",": 3563,
      "\"별명\"": 3564,
      "\"살인자": 3565,
      "\"숲\"": 3566,
      "\"싱글\"라는": 3567,
      "\"앱의": 3568,
      "\"에너지": 3569,
      "\"옳다\"라는": 3570,
      "\"우연": 3571,
      "\"운반\"": 3572,
      "\"잉크\"": 3573,
      "\"접근\",": 3574,
      "\"채택\"": 3575,
      "\"체조": 3576,
      "\"폭탄\"": 3577,
      "\"피부\"라는": 3578,
      "\"혁명\"": 3579,
      "\"홈스쿨": 3580,
      "\"회고록": 3581,
      "\"사용\",": 3582,
      "\"요약\"": 3583,
      "\"이야기\",": 3584,
      "\"수수께끼\"라는": 3585,
      "\"그리드\"라는": 3586,
      "\"대통령\"": 3587,
      "\"시간\"": 3588,
      "\"프로젝트\"라는": 3589,
      "\"고양이\"라는": 3590,
      "\"결과\",": 3591,
      "\"경제\",": 3592,
      "\"세금\"": 3593,
      "\"파일\",": 3594,
      "\"계산\",": 3595,
      "\"관계\"": 3596,
      "\"기후\",": 3597,
      "\"사진\"": 3598,
      "\"정류장\"": 3599,
      "\"취약점\"": 3600,
      "\"아르헨티나\"라는": 3601,
      "'BC',": 3602,
      "'답'": 3603,
      "'도살',": 3604,
      "'문화',": 3605,
      "'보상'": 3606,
      "'비용',": 3607,
      "'사촌'": 3608,
      "'슬픔',": 3609,
      "'아틀란티": 3610,
      "'예'": 3611,
      "'위르겐'": 3612,
      "'이민자'라는": 3613,
      "'저조']": 3614,
      "'점령',": 3615,
      "'지표',": 3616,
      "'타다'": 3617,
      "'포식자'라는": 3618,
      "'하루']": 3619,
      "'JSON'": 3620,
      "'일정'": 3621,
      "'ars": 3622,
      "'가능'": 3623,
      "'대학'": 3624,
      "'경제학자',": 3625,
      "'관리'라는": 3626,
      "'목표'": 3627,
      "'스트레스'": 3628,
      "'경찰관'": 3629,
      "'미친',": 3630,
      "'벼룩'": 3631,
      "'선사시대'라는": 3632,
      "'익사'라는": 3633,
      "'축제'": 3634,
      "'침략'": 3635,
      "'패러디'라는": 3636,
      "(1)": 3637,
      "(3)": 3638,
      "(노트:": 3639,
      "(인접": 3640,
      "(기울이": 3641,
      "*표시*해": 3642,
      "*마크다운*": 3643,
      "*쉼표*": 3644,
      "*적어도*": 3645,
      "*기울여*": 3646,
      "1+1=3": 3647,
      "2문장)여야": 3648,
      "250개": 3649,
      "36000원인": 3650,
      "396칼": 3651,
      "4500원": 3652,
      "6학년": 3653,
      "://en.wik": 3654,
      ":05:28": 3655,
      "<br>": 3656,
      "ADHD": 3657,
      "Amaz": 3658,
      "Birth": 3659,
      "Buena": 3660,
      "Dariu": 3661,
      "Faceboo": 3662,
      "Glas": 3663,
      "Happy": 3664,
      "Hou\"의": 3665,
      "ISIL": 3666,
      "I,_Count": 3667,
      "IBM의": 3668,
      "Jeanne": 3669,
      "Karlo": 3670,
      "Luheng": 3671,
      "Lilith": 3672,
      "Moser,": 3673,
      "Markdo": 3674,
      "Micros": 3675,
      "NYC": 3676,
      "Onda라는": 3677,
      "Pravcic": 3678,
      "Python": 3679,
      "Store": 3680,
      "Thayer": 3681,
      "Vary": 3682,
      "Ventura": 3683,
      "[dat": 3684,
      "[json": 3685,
      "[পণ্": 3686,
      "[시]": 3687,
      "[에세이]": 3688,
      "[질문]": 3689,
      "[author]": 3690,
      "[위치]": 3691,
      "['나쁨',": 3692,
      "[전화번호": 3693,
      "[name]": 3694,
      "[가격]": 3695,
      "[웹사이트]": 3696,
      "['개',": 3697,
      "_of_Tr": 3698,
      "ade라는": 3699,
      "a.org/wik": 3700,
      "cái": 3701,
      "của": 3702,
      "dạy": 3703,
      "day라는": 3704,
      "d_III,_Count": 3705,
      "facade라는": 3706,
      "i/Raymon": 3707,
      "liant": 3708,
      "nuôi": 3709,
      "ps://en.wik": 3710,
      "para": 3711,
      "poetica'의": 3712,
      "sworks": 3713,
      "vy,": 3714,
      "가르치": 3715,
      "검은색입니다": 3716,
      "경주로": 3717,
      "괴물의": 3718,
      "교회의": 3719,
      "구금의": 3720,
      "국세청": 3721,
      "기디온": 3722,
      "기립니다": 3723,
      "깨어나": 3724,
      "나눠줄": 3725,
      "나무의": 3726,
      "나탈리아": 3727,
      "남아도": 3728,
      "네덜란드어": 3729,
      "네트워크": 3730,
      "네팔어": 3731,
      "놀이터": 3732,
      "다변량": 3733,
      "대안인": 3734,
      "대표의": 3735,
      "던지기": 3736,
      "도망쳤": 3737,
      "도시입니다인": 3738,
      "도우미": 3739,
      "뒷마당": 3740,
      "드래곤": 3741,
      "들려주": 3742,
      "땅콩버터": 3743,
      "라라랜드": 3744,
      "라텍스": 3745,
      "라파엘": 3746,
      "래드클리프": 3747,
      "러시아어": 3748,
      "레인보우": 3749,
      "로맨틱": 3750,
      "로체스터": 3751,
      "르네상스": 3752,
      "리오넬": 3753,
      "립투스": 3754,
      "마이크": 3755,
      "망아지의": 3756,
      "맞춰야": 3757,
      "매칭해": 3758,
      "명예훼손": 3759,
      "목요일": 3760,
      "무슬림의": 3761,
      "무언가": 3762,
      "무정부주의자": 3763,
      "물어볼": 3764,
      "미용실": 3765,
      "미니어처": 3766,
      "배트맨": 3767,
      "벤자민": 3768,
      "보트입니다": 3769,
      "보헤미아": 3770,
      "부적절": 3771,
      "불행히도라": 3772,
      "브랜드,": 3773,
      "비행기": 3774,
      "사스카툰": 3775,
      "사우스다코": 3776,
      "사육장": 3777,
      "선전인가": 3778,
      "세르비아": 3779,
      "슈퍼맨": 3780,
      "스웨트셔츠": 3781,
      "스퀴커\"": 3782,
      "스프레드시트": 3783,
      "시애틀": 3784,
      "시어터": 3785,
      "시절의": 3786,
      "시리즈의": 3787,
      "신화의": 3788,
      "실제로": 3789,
      "십니까:": 3790,
      "씨앗의": 3791,
      "아카데미": 3792,
      "아쿠아리움": 3793,
      "아라브라": 3794,
      "안토니아": 3795,
      "알루미늄": 3796,
      "알바니아의": 3797,
      "어졌으며,": 3798,
      "어쿠스틱": 3799,
      "어떠신가요": 3800,
      "어벤져스": 3801,
      "업데이트": 3802,
      "에이전시": 3803,
      "에피소드": 3804,
      "역함수": 3805,
      "오프셋": 3806,
      "오스트리아": 3807,
      "우정,": 3808,
      "우르두어로만": 3809,
      "위키백과": 3810,
      "유칼립투스": 3811,
      "이정표": 3812,
      "인테리어": 3813,
      "자전거": 3814,
      "재창작": 3815,
      "제54회": 3816,
      "조직자": 3817,
      "체코의": 3818,
      "카페\"": 3819,
      "카푸르": 3820,
      "콘텐츠": 3821,
      "크레이터": 3822,
      "크로아티아": 3823,
      "탄산음료의": 3824,
      "틱(```)": 3825,
      "폐기물,": 3826,
      "포스터리어": 3827,
      "폭풍우": 3828,
      "프로그램": 3829,
      "프랭클린의": 3830,
      "응답(추론": 3831,
      "<<수수께끼>>": 3832,
      "<<...의": 3833,
      "<<SRE>>": 3834,
      "<<xyz의": 3835,
      "프로스펙트": 3836,
      "1956년": 3837,
      "1950년대의": 3838,
      "'나머지'라는": 3839,
      "개발도상국의": 3840,
      "애플리케이션의": 3841,
      "15센치미터": 3842,
      "32그램의": 3843,
      "UTC+00:05:28": 3844,
      "content]": 3845,
      "ipedia.org/wik": 3846,
      "\"631-481-4867": 3847,
      "\"Brilliant": 3848,
      "\"Nhiệm": 3849,
      "\"https://en.wik": 3850,
      "\"schlau\"라는": 3851,
      "\"살인자\",": 3852,
      "\"에너지\",": 3853,
      "\"홈스쿨링의": 3854,
      "\"회고록\"": 3855,
      "'아틀란티스'": 3856,
      "396칼로리": 3857,
      "Amazon": 3858,
      "Birthday라는": 3859,
      "Darius라는": 3860,
      "Facebook,": 3861,
      "Glassworks": 3862,
      "Karlovy,": 3863,
      "Lilith라는": 3864,
      "Markdown": 3865,
      "Microsoft,": 3866,
      "Pravcice,": 3867,
      "[date]": 3868,
      "[পণ্য]": 3869,
      "[전화번호]": 3870,
      "_of_Tripoli\"의": 3871,
      "d_III,_Count_of_Tripoli\"의": 3872,
      "i/Raymond_III,_Count_of_Tripoli\"의": 3873,
      "사우스다코타": 3874,
      "ipedia.org/wiki/Raymond_III,_Count_of_Tripoli\"의": 3875,
      "\"https://en.wikipedia.org/wiki/Raymond_III,_Count_of_Tripoli\"의": 3876,
      "Glassworks,": 3877
    },
    "merges": [
      [
        "세",
        "요"
      ],
      [
        "니",
        "다"
      ],
      [
        "작",
        "성"
      ],
      [
        "*",
        "*"
      ],
      [
        "응",
        "답"
      ],
      [
        "으",
        "로"
      ],
      [
        "합",
        "니다"
      ],
      [
        "포",
        "함"
      ],
      [
        "단",
        "어"
      ],
      [
        "대",
        "한"
      ],
      [
        "개",
        "의"
      ],
      [
        "사",
        "용"
      ],
      [
        "답",
        "변"
      ],
      [
        "라",
        "는"
      ],
      [
        "어",
        "야"
      ],
      [
        "시",
        "오"
      ],
      [
        "십",
        "시오"
      ],
      [
        "최",
        "소"
      ],
      [
        "입",
        "니다"
      ],
      [
        "기",
        "호"
      ],
      [
        "에",
        "서"
      ],
      [
        "섹",
        "션"
      ],
      [
        "다",
        "음"
      ],
      [
        "당",
        "신"
      ],
      [
        "습",
        "니다"
      ],
      [
        "정",
        "확"
      ],
      [
        "해",
        "야"
      ],
      [
        "머",
        "리"
      ],
      [
        "글",
        "머리"
      ],
      [
        "전",
        "체"
      ],
      [
        "위",
        "한"
      ],
      [
        "형",
        "식"
      ],
      [
        "문",
        "장"
      ],
      [
        "표",
        "시"
      ],
      [
        "나",
        "요"
      ],
      [
        "다",
        "른"
      ],
      [
        "다",
        "운"
      ],
      [
        "스",
        "트"
      ],
      [
        "정확",
        "히"
      ],
      [
        "마",
        "크"
      ],
      [
        "마크",
        "다운"
      ],
      [
        "강",
        "조"
      ],
      [
        "며",
        ","
      ],
      [
        "마",
        "세요"
      ],
      [
        "제",
        "목"
      ],
      [
        "감",
        "싸"
      ],
      [
        "반",
        "복"
      ],
      [
        "요",
        "청"
      ],
      [
        "구",
        "분"
      ],
      [
        "쉼",
        "표"
      ],
      [
        "**",
        "**"
      ],
      [
        "0",
        "0"
      ],
      [
        "세요",
        ":"
      ],
      [
        "괄",
        "호"
      ],
      [
        ".",
        "\""
      ],
      [
        "시",
        "작"
      ],
      [
        "고",
        ","
      ],
      [
        "인",
        "가"
      ],
      [
        ".",
        "."
      ],
      [
        "대",
        "답"
      ],
      [
        "사",
        "람"
      ],
      [
        "이",
        "름"
      ],
      [
        "이",
        "상"
      ],
      [
        "하",
        "나"
      ],
      [
        "로",
        "운"
      ],
      [
        "에",
        "게"
      ],
      [
        "재",
        "미"
      ],
      [
        "**",
        "*"
      ],
      [
        "P",
        "."
      ],
      [
        "대",
        "해"
      ],
      [
        "설",
        "명"
      ],
      [
        "텍",
        "스트"
      ],
      [
        "재미",
        "있"
      ],
      [
        "워",
        "드"
      ],
      [
        "인가",
        "요"
      ],
      [
        "새",
        "로운"
      ],
      [
        "키",
        "워드"
      ],
      [
        "단",
        "락"
      ],
      [
        "따",
        "옴"
      ],
      [
        "제",
        "공"
      ],
      [
        "따옴",
        "표"
      ],
      [
        "<",
        "<"
      ],
      [
        ">",
        ">"
      ],
      [
        "위",
        "해"
      ],
      [
        "큰",
        "따옴표"
      ],
      [
        "3",
        "개의"
      ],
      [
        "가",
        "지"
      ],
      [
        "언",
        "어"
      ],
      [
        "자",
        "리"
      ],
      [
        "\"",
        "제"
      ],
      [
        "\"",
        "라는"
      ],
      [
        "귀",
        "하"
      ],
      [
        "무",
        "엇"
      ],
      [
        "이",
        "중"
      ],
      [
        "00",
        "단어"
      ],
      [
        "1",
        "0"
      ],
      [
        "허",
        "용"
      ],
      [
        "*",
        "강조"
      ],
      [
        "로",
        "그"
      ],
      [
        "별",
        "표"
      ],
      [
        "스",
        "타"
      ],
      [
        "J",
        "S"
      ],
      [
        "O",
        "N"
      ],
      [
        "광",
        "고"
      ],
      [
        "블",
        "로그"
      ],
      [
        "추",
        "가"
      ],
      [
        "****",
        "**"
      ],
      [
        "무엇",
        "인가요"
      ],
      [
        "JS",
        "ON"
      ],
      [
        "6",
        "개의"
      ],
      [
        "또",
        "는"
      ],
      [
        "먼",
        "저"
      ],
      [
        "우",
        "리"
      ],
      [
        "최소",
        "한"
      ],
      [
        "P.",
        "S"
      ],
      [
        "도",
        "록"
      ],
      [
        "어",
        "떤"
      ],
      [
        "포",
        "스트"
      ],
      [
        "제목",
        ">>"
      ],
      [
        "다",
        "시"
      ],
      [
        "마",
        "십시오"
      ],
      [
        "문",
        "구"
      ],
      [
        "방",
        "법"
      ],
      [
        "요",
        "약"
      ],
      [
        "주",
        "실"
      ],
      [
        "세요",
        ","
      ],
      [
        "<<",
        "제목>>"
      ],
      [
        "\"",
        ","
      ],
      [
        "*",
        "."
      ],
      [
        "께",
        "끼"
      ],
      [
        "노",
        "래"
      ],
      [
        "변",
        "경"
      ],
      [
        "수",
        "수"
      ],
      [
        "야",
        "기"
      ],
      [
        "이",
        "하"
      ],
      [
        "이",
        "야기"
      ],
      [
        "제",
        "품"
      ],
      [
        "수수",
        "께끼"
      ],
      [
        "'",
        ","
      ],
      [
        "각",
        "괄호"
      ],
      [
        "구",
        "성"
      ],
      [
        "는",
        "지"
      ],
      [
        "대",
        "괄호"
      ],
      [
        "만",
        "들"
      ],
      [
        "세",
        "이"
      ],
      [
        "에",
        "세이"
      ],
      [
        "위",
        "의"
      ],
      [
        "이",
        "것"
      ],
      [
        "2",
        "0"
      ],
      [
        "`",
        "`"
      ],
      [
        "그",
        "대"
      ],
      [
        "또",
        "한"
      ],
      [
        "생",
        "각"
      ],
      [
        "써",
        "라"
      ],
      [
        "아",
        "니"
      ],
      [
        "아",
        "래"
      ],
      [
        "여",
        "행"
      ],
      [
        "합니다",
        ":"
      ],
      [
        "그대",
        "로"
      ],
      [
        "4",
        "개의"
      ],
      [
        "것",
        "입니다"
      ],
      [
        "그",
        "리"
      ],
      [
        "도",
        "와"
      ],
      [
        "미",
        "국"
      ],
      [
        "버",
        "전"
      ],
      [
        "부",
        "분"
      ],
      [
        "어",
        "떻"
      ],
      [
        "회",
        "사"
      ],
      [
        "응답",
        "의"
      ],
      [
        "다음",
        ","
      ],
      [
        "이하",
        "로"
      ],
      [
        "관",
        "한"
      ],
      [
        "미",
        "만"
      ],
      [
        "적",
        "인"
      ],
      [
        "제",
        "안"
      ],
      [
        "지",
        "만"
      ],
      [
        "출",
        "력"
      ],
      [
        "한",
        "다"
      ],
      [
        "후",
        "기"
      ],
      [
        "P.",
        "P.S"
      ],
      [
        "2",
        "개의"
      ],
      [
        "게",
        "임"
      ],
      [
        "남",
        "자"
      ],
      [
        "디",
        "어"
      ],
      [
        "마",
        "라"
      ],
      [
        "목",
        "록"
      ],
      [
        "아",
        "이"
      ],
      [
        "일",
        "정"
      ],
      [
        "스타",
        "일"
      ],
      [
        "같",
        "이"
      ],
      [
        "기",
        "울"
      ],
      [
        "농",
        "담"
      ],
      [
        "니",
        "까"
      ],
      [
        "도",
        "입니다"
      ],
      [
        "되",
        ","
      ],
      [
        "됩",
        "니다"
      ],
      [
        "리",
        "머"
      ],
      [
        "마",
        "도입니다"
      ],
      [
        "아",
        "야"
      ],
      [
        "아",
        "마도입니다"
      ],
      [
        "엄",
        "마"
      ],
      [
        "역",
        "사"
      ],
      [
        "예",
        "입니다"
      ],
      [
        "요",
        "입니다"
      ],
      [
        "을",
        "까"
      ],
      [
        "이",
        "탤"
      ],
      [
        "흥",
        "미"
      ],
      [
        "아니",
        "요입니다"
      ],
      [
        "그리",
        "고"
      ],
      [
        "제안",
        "서"
      ],
      [
        "리머",
        "릭"
      ],
      [
        "이탤",
        "릭"
      ],
      [
        "'",
        "라는"
      ],
      [
        "a",
        "r"
      ],
      [
        "끝",
        "내"
      ],
      [
        "나",
        "타"
      ],
      [
        "니",
        "어"
      ],
      [
        "단",
        "점"
      ],
      [
        "라",
        "고"
      ],
      [
        "라",
        "인"
      ],
      [
        "아",
        "무"
      ],
      [
        "없",
        "이"
      ],
      [
        "으",
        "며,"
      ],
      [
        "조",
        "언"
      ],
      [
        "편",
        "지"
      ],
      [
        "프",
        "트"
      ],
      [
        "학",
        "생"
      ],
      [
        "십시오",
        ":"
      ],
      [
        "텍스트",
        "*"
      ],
      [
        "5",
        "0"
      ],
      [
        "5",
        "개의"
      ],
      [
        "[",
        "주"
      ],
      [
        "e",
        "n"
      ],
      [
        "그",
        "녀"
      ],
      [
        "대",
        "상"
      ],
      [
        "대",
        "통"
      ],
      [
        "메",
        "일"
      ],
      [
        "모",
        "든"
      ],
      [
        "얼",
        "마"
      ],
      [
        "예",
        ":"
      ],
      [
        "오",
        "직"
      ],
      [
        "이",
        "력"
      ],
      [
        "이",
        "메일"
      ],
      [
        "장",
        "단점"
      ],
      [
        "전",
        "문"
      ],
      [
        "제",
        "시"
      ],
      [
        "질",
        "문"
      ],
      [
        "코",
        "드"
      ],
      [
        "트",
        "업"
      ],
      [
        "프",
        "로"
      ],
      [
        "피",
        "치"
      ],
      [
        "섹션",
        "*."
      ],
      [
        "..",
        "."
      ],
      [
        "이상",
        "한"
      ],
      [
        "하나",
        "의"
      ],
      [
        "스타",
        "트업"
      ],
      [
        "대통",
        "령"
      ],
      [
        "*",
        "이탤릭"
      ],
      [
        "3",
        "00단어"
      ],
      [
        "c",
        "h"
      ],
      [
        "가",
        "진"
      ],
      [
        "구",
        "문"
      ],
      [
        "그",
        "것"
      ],
      [
        "기",
        "사"
      ],
      [
        "나",
        "열"
      ],
      [
        "내",
        "용"
      ],
      [
        "드",
        "릴"
      ],
      [
        "디",
        "오"
      ],
      [
        "명",
        "시"
      ],
      [
        "부",
        "정"
      ],
      [
        "사",
        "실"
      ],
      [
        "소",
        "]"
      ],
      [
        "소",
        "개"
      ],
      [
        "소",
        "프트"
      ],
      [
        "습",
        "니까"
      ],
      [
        "십",
        "대"
      ],
      [
        "언",
        "급"
      ],
      [
        "엔",
        "지"
      ],
      [
        "여",
        "야"
      ],
      [
        "웨",
        "어"
      ],
      [
        "이",
        "유"
      ],
      [
        "처",
        "럼"
      ],
      [
        "처",
        "음"
      ],
      [
        "친",
        "구"
      ],
      [
        "페",
        "이"
      ],
      [
        "필",
        "요"
      ],
      [
        "하",
        "이"
      ],
      [
        "확",
        "장"
      ],
      [
        "이상",
        "의"
      ],
      [
        "P.S",
        "."
      ],
      [
        "``",
        "`"
      ],
      [
        "도와",
        "드릴"
      ],
      [
        "기울",
        "임"
      ],
      [
        "나타",
        "나"
      ],
      [
        "[주",
        "소]"
      ],
      [
        "이력",
        "서"
      ],
      [
        "엔지",
        "니어"
      ],
      [
        "!",
        "\""
      ],
      [
        "(",
        "******"
      ],
      [
        "3",
        "0"
      ],
      [
        "5",
        "문장"
      ],
      [
        "o",
        "n"
      ],
      [
        "가",
        "장"
      ],
      [
        "게",
        "시"
      ],
      [
        "기",
        "소개"
      ],
      [
        "꺾",
        "쇠"
      ],
      [
        "년",
        "의"
      ],
      [
        "니",
        "펫"
      ],
      [
        "다",
        "는"
      ],
      [
        "다",
        "양"
      ],
      [
        "드",
        "시"
      ],
      [
        "때",
        ","
      ],
      [
        "려",
        "고"
      ],
      [
        "마",
        "무"
      ],
      [
        "문",
        "서"
      ],
      [
        "문",
        "자"
      ],
      [
        "바",
        "꾸"
      ],
      [
        "배",
        "우"
      ],
      [
        "보",
        "다"
      ],
      [
        "비",
        "판"
      ],
      [
        "세",
        "히"
      ],
      [
        "스",
        "니펫"
      ],
      [
        "시",
        "간"
      ],
      [
        "여",
        "기"
      ],
      [
        "여",
        "섯"
      ],
      [
        "이",
        "션"
      ],
      [
        "이",
        "점"
      ],
      [
        "자",
        "기소개"
      ],
      [
        "자",
        "세히"
      ],
      [
        "젝",
        "트"
      ],
      [
        "져",
        "야"
      ],
      [
        "지",
        "역"
      ],
      [
        "직",
        "장"
      ],
      [
        "티",
        "어"
      ],
      [
        "판",
        "매"
      ],
      [
        "힌",
        "디어"
      ],
      [
        "답변",
        "의"
      ],
      [
        "기호",
        "가"
      ],
      [
        "섹션",
        "*"
      ],
      [
        "..",
        ".."
      ],
      [
        "또한",
        ","
      ],
      [
        "아래",
        "의"
      ],
      [
        "을까",
        "요"
      ],
      [
        "프로",
        "젝트"
      ],
      [
        "소프트",
        "웨어"
      ],
      [
        "하이",
        "쿠"
      ],
      [
        "(******",
        ")"
      ],
      [
        "게시",
        "물"
      ],
      [
        "마무",
        "리"
      ],
      [
        "자기소개",
        "서"
      ],
      [
        "\"",
        "섹션"
      ],
      [
        "\"",
        "우리"
      ],
      [
        "1",
        "9"
      ],
      [
        "2",
        "00단어"
      ],
      [
        "X",
        "\""
      ],
      [
        "[",
        "여기"
      ],
      [
        "a",
        "u"
      ],
      [
        "가",
        "능"
      ],
      [
        "계",
        "획"
      ],
      [
        "고",
        "객"
      ],
      [
        "고",
        "양"
      ],
      [
        "고",
        "의"
      ],
      [
        "과",
        "학"
      ],
      [
        "구",
        "두"
      ],
      [
        "그",
        "런"
      ],
      [
        "다",
        "고"
      ],
      [
        "데",
        "이"
      ],
      [
        "동",
        "물"
      ],
      [
        "등",
        "장"
      ],
      [
        "따",
        "라"
      ],
      [
        "마",
        "지"
      ],
      [
        "만",
        "드"
      ],
      [
        "매",
        "우"
      ],
      [
        "모",
        "델"
      ],
      [
        "반",
        "드시"
      ],
      [
        "비",
        "스"
      ],
      [
        "비",
        "디오"
      ],
      [
        "사",
        "이"
      ],
      [
        "서",
        "비스"
      ],
      [
        "선",
        "택"
      ],
      [
        "성",
        "자"
      ],
      [
        "세",
        "계"
      ],
      [
        "세",
        "부정"
      ],
      [
        "수",
        "학"
      ],
      [
        "신",
        "문"
      ],
      [
        "어",
        "로"
      ],
      [
        "어",
        "린"
      ],
      [
        "영",
        "향"
      ],
      [
        "영",
        "화"
      ],
      [
        "오",
        "늘"
      ],
      [
        "위",
        "치"
      ],
      [
        "이",
        "해"
      ],
      [
        "인",
        "트"
      ],
      [
        "일",
        "어"
      ],
      [
        "입",
        "력"
      ],
      [
        "작",
        "업"
      ],
      [
        "전",
        "적"
      ],
      [
        "주",
        "얼"
      ],
      [
        "주",
        "세요"
      ],
      [
        "지",
        "의"
      ],
      [
        "최",
        "고의"
      ],
      [
        "추",
        "신"
      ],
      [
        "캐",
        "주얼"
      ],
      [
        "템",
        "플"
      ],
      [
        "트",
        "윗"
      ],
      [
        "평",
        "균"
      ],
      [
        "포",
        "인트"
      ],
      [
        "형",
        "태"
      ],
      [
        "세요",
        "]"
      ],
      [
        "기호",
        "(******)"
      ],
      [
        "섹션",
        "의"
      ],
      [
        "00",
        "0"
      ],
      [
        "하나",
        "하나"
      ],
      [
        "10",
        "대"
      ],
      [
        "마라",
        "티어"
      ],
      [
        "50",
        "단어"
      ],
      [
        "얼마",
        "나"
      ],
      [
        "고양",
        "이"
      ],
      [
        "구두",
        "점"
      ],
      [
        "마지",
        "막"
      ],
      [
        "세부정",
        "보"
      ],
      [
        "템플",
        "릿"
      ],
      [
        "*",
        "이것"
      ],
      [
        "*",
        "기울임"
      ],
      [
        "1",
        "입니다"
      ],
      [
        "2",
        "개"
      ],
      [
        "4",
        "00단어"
      ],
      [
        "7",
        "문장"
      ],
      [
        "?",
        "\""
      ],
      [
        "?",
        "\"라는"
      ],
      [
        "C",
        "o"
      ],
      [
        "M",
        "L"
      ],
      [
        "a",
        "n"
      ],
      [
        "e",
        "r"
      ],
      [
        "h",
        "en"
      ],
      [
        "l",
        "e"
      ],
      [
        "o",
        "o"
      ],
      [
        "o",
        "r"
      ],
      [
        "t",
        "h"
      ],
      [
        "가",
        "져야"
      ],
      [
        "각",
        "각"
      ],
      [
        "거",
        "나"
      ],
      [
        "결",
        "과"
      ],
      [
        "경",
        "험"
      ],
      [
        "과",
        "정"
      ],
      [
        "그",
        "러"
      ],
      [
        "기",
        "능"
      ],
      [
        "논",
        "문"
      ],
      [
        "니",
        "스"
      ],
      [
        "다",
        "섯"
      ],
      [
        "대",
        "학"
      ],
      [
        "대",
        "화"
      ],
      [
        "도",
        "움"
      ],
      [
        "독",
        "일어"
      ],
      [
        "레",
        "스"
      ],
      [
        "루",
        "브"
      ],
      [
        "루",
        "어"
      ],
      [
        "리",
        "아"
      ],
      [
        "리",
        "어"
      ],
      [
        "마",
        "법"
      ],
      [
        "미",
        "디어"
      ],
      [
        "바",
        "꿈"
      ],
      [
        "보",
        "여"
      ],
      [
        "블",
        "록"
      ],
      [
        "사",
        "기"
      ],
      [
        "설",
        "계"
      ],
      [
        "소",
        "년"
      ],
      [
        "소",
        "셜"
      ],
      [
        "수",
        "업"
      ],
      [
        "시",
        "장"
      ],
      [
        "시",
        "키"
      ],
      [
        "아",
        "기"
      ],
      [
        "아",
        "름"
      ],
      [
        "애",
        "완"
      ],
      [
        "어",
        "서"
      ],
      [
        "연",
        "구"
      ],
      [
        "온",
        "라인"
      ],
      [
        "으",
        "면"
      ],
      [
        "으",
        "세요"
      ],
      [
        "음",
        "식"
      ],
      [
        "이",
        "겼"
      ],
      [
        "이",
        "루어"
      ],
      [
        "일",
        "본"
      ],
      [
        "일",
        "부"
      ],
      [
        "일",
        "자리"
      ],
      [
        "자",
        "신"
      ],
      [
        "절",
        "차"
      ],
      [
        "주",
        "요"
      ],
      [
        "중",
        "국"
      ],
      [
        "즉",
        ","
      ],
      [
        "지",
        "원"
      ],
      [
        "청",
        "중"
      ],
      [
        "최",
        "신"
      ],
      [
        "커",
        "피"
      ],
      [
        "컴",
        "퓨"
      ],
      [
        "평",
        "가"
      ],
      [
        "프",
        "레"
      ],
      [
        "학",
        "교"
      ],
      [
        "해",
        "서"
      ],
      [
        "해",
        "줘"
      ],
      [
        "확",
        "인"
      ],
      [
        "후",
        ","
      ],
      [
        "합니다",
        ","
      ],
      [
        "십시오",
        ","
      ],
      [
        "10",
        "문장"
      ],
      [
        "******",
        "."
      ],
      [
        "페이",
        "지"
      ],
      [
        "어린",
        "이"
      ],
      [
        "루브",
        "릭"
      ],
      [
        "컴퓨",
        "터"
      ],
      [
        "\"",
        "열"
      ],
      [
        "'",
        "나"
      ],
      [
        "'",
        "내"
      ],
      [
        "*",
        ","
      ],
      [
        "1",
        "개의"
      ],
      [
        "1",
        "00단어"
      ],
      [
        "1",
        "50단어"
      ],
      [
        "2",
        "번"
      ],
      [
        "2",
        "입니다"
      ],
      [
        "4",
        "0"
      ],
      [
        "6",
        "문장"
      ],
      [
        "7",
        "일"
      ],
      [
        "7",
        "개의"
      ],
      [
        "8",
        "개의"
      ],
      [
        "A",
        "P"
      ],
      [
        "C",
        "au"
      ],
      [
        "G",
        "oo"
      ],
      [
        "S",
        "ch"
      ],
      [
        "[",
        "섹션"
      ],
      [
        "[",
        "이름"
      ],
      [
        "a",
        "m"
      ],
      [
        "a",
        "v"
      ],
      [
        "a",
        "y"
      ],
      [
        "g",
        "le"
      ],
      [
        "i",
        "c"
      ],
      [
        "i",
        "an"
      ],
      [
        "n",
        "am"
      ],
      [
        "p",
        "p"
      ],
      [
        "s",
        "er"
      ],
      [
        "w",
        "ar"
      ],
      [
        "y",
        "–"
      ],
      [
        "가",
        "안"
      ],
      [
        "간",
        "단"
      ],
      [
        "간",
        "의"
      ],
      [
        "감",
        "정"
      ],
      [
        "강",
        "아"
      ],
      [
        "강",
        "의"
      ],
      [
        "개",
        "발"
      ],
      [
        "개",
        "요"
      ],
      [
        "걸",
        "쳐"
      ],
      [
        "경",
        "제"
      ],
      [
        "공",
        "식"
      ],
      [
        "관",
        "리"
      ],
      [
        "관",
        "심"
      ],
      [
        "구",
        "글"
      ],
      [
        "구",
        "어로"
      ],
      [
        "국",
        "가안"
      ],
      [
        "그",
        "냥"
      ],
      [
        "그",
        "래"
      ],
      [
        "기",
        "저"
      ],
      [
        "껍",
        "질"
      ],
      [
        "끝",
        "나"
      ],
      [
        "능",
        "력"
      ],
      [
        "다",
        "면"
      ],
      [
        "다",
        "움"
      ],
      [
        "단",
        "계"
      ],
      [
        "당",
        "구"
      ],
      [
        "대",
        "체"
      ],
      [
        "던",
        "질"
      ],
      [
        "들",
        "어"
      ],
      [
        "등",
        "식"
      ],
      [
        "등",
        "학교"
      ],
      [
        "디",
        "지"
      ],
      [
        "따",
        "르"
      ],
      [
        "랑",
        "스"
      ],
      [
        "레",
        "이션"
      ],
      [
        "려",
        "면"
      ],
      [
        "로",
        ","
      ],
      [
        "로",
        "]"
      ],
      [
        "루",
        "구어로"
      ],
      [
        "리",
        "뷰"
      ],
      [
        "리",
        "의"
      ],
      [
        "메",
        "모"
      ],
      [
        "명",
        "의"
      ],
      [
        "모",
        "두"
      ],
      [
        "목",
        "표"
      ],
      [
        "문",
        "제"
      ],
      [
        "미",
        "터"
      ],
      [
        "반",
        "지의"
      ],
      [
        "변",
        "호"
      ],
      [
        "보",
        "좌"
      ],
      [
        "부",
        "입니다"
      ],
      [
        "부",
        "등식"
      ],
      [
        "분",
        "야"
      ],
      [
        "사",
        "업"
      ],
      [
        "사",
        "항"
      ],
      [
        "생",
        "성"
      ],
      [
        "설",
        "득"
      ],
      [
        "세",
        "금"
      ],
      [
        "세",
        "상"
      ],
      [
        "센",
        "트"
      ],
      [
        "셰",
        "익"
      ],
      [
        "수",
        "행"
      ],
      [
        "스",
        "터"
      ],
      [
        "스",
        "티"
      ],
      [
        "스",
        "피"
      ],
      [
        "시",
        "대"
      ],
      [
        "시",
        "의"
      ],
      [
        "애",
        "플"
      ],
      [
        "양",
        "성자"
      ],
      [
        "어",
        "도"
      ],
      [
        "어",
        "조"
      ],
      [
        "여",
        "러"
      ],
      [
        "예",
        "시"
      ],
      [
        "옵",
        "션"
      ],
      [
        "외",
        "부"
      ],
      [
        "우",
        "유"
      ],
      [
        "원",
        "인"
      ],
      [
        "의",
        "자"
      ],
      [
        "인",
        "터"
      ],
      [
        "일",
        "반"
      ],
      [
        "자",
        "바"
      ],
      [
        "자",
        "인"
      ],
      [
        "적",
        "어도"
      ],
      [
        "전",
        "반"
      ],
      [
        "전",
        "쟁"
      ],
      [
        "전",
        "화"
      ],
      [
        "정",
        "신"
      ],
      [
        "제",
        "왕"
      ],
      [
        "졸",
        "업"
      ],
      [
        "주",
        "석"
      ],
      [
        "주",
        "제"
      ],
      [
        "째",
        ","
      ],
      [
        "차",
        "이점"
      ],
      [
        "최",
        "종"
      ],
      [
        "취",
        "약"
      ],
      [
        "태",
        "양"
      ],
      [
        "텔",
        "루구어로"
      ],
      [
        "툴",
        "사"
      ],
      [
        "특",
        "히"
      ],
      [
        "파",
        "일"
      ],
      [
        "편",
        "안"
      ],
      [
        "평",
        "화"
      ],
      [
        "프",
        "랑스"
      ],
      [
        "학",
        "자"
      ],
      [
        "함",
        "께"
      ],
      [
        "해",
        ","
      ],
      [
        "해",
        "줄"
      ],
      [
        "행",
        "동"
      ],
      [
        "향",
        "수"
      ],
      [
        "현",
        "재"
      ],
      [
        "화",
        "난"
      ],
      [
        "환",
        "경"
      ],
      [
        "훈",
        "련"
      ],
      [
        "습니다",
        ":"
      ],
      [
        "스트",
        "레스"
      ],
      [
        "감싸",
        "인"
      ],
      [
        "감싸",
        "져"
      ],
      [
        "10",
        "개의"
      ],
      [
        "<<제목>>",
        "."
      ],
      [
        "<<제목>>",
        "입니다"
      ],
      [
        "구성",
        "원"
      ],
      [
        "20",
        "문장"
      ],
      [
        "도와",
        "줄"
      ],
      [
        "지만",
        ","
      ],
      [
        "스타일",
        "의"
      ],
      [
        "전문",
        "가"
      ],
      [
        "ch",
        "y–"
      ],
      [
        "19",
        "세"
      ],
      [
        "데이",
        "터"
      ],
      [
        "Co",
        "hen"
      ],
      [
        "그러",
        "나"
      ],
      [
        "논문",
        "의"
      ],
      [
        "마법",
        "사"
      ],
      [
        "아름",
        "다움"
      ],
      [
        "애완",
        "동물"
      ],
      [
        "\"열",
        "쇠"
      ],
      [
        "Cau",
        "chy–"
      ],
      [
        "Goo",
        "gle"
      ],
      [
        "Sch",
        "war"
      ],
      [
        "[이름",
        "]"
      ],
      [
        "nam",
        "e"
      ],
      [
        "강아",
        "지"
      ],
      [
        "국가안",
        "보"
      ],
      [
        "기저",
        "귀"
      ],
      [
        "끝나",
        "야"
      ],
      [
        "디지",
        "털"
      ],
      [
        "변호",
        "사"
      ],
      [
        "보좌",
        "관"
      ],
      [
        "셰익",
        "스피"
      ],
      [
        "특히",
        ","
      ],
      [
        "Cauchy–",
        "Schwar"
      ],
      [
        "셰익스피",
        "어"
      ],
      [
        "Cauchy–Schwar",
        "z"
      ],
      [
        "\"",
        "내"
      ],
      [
        "\"",
        "더"
      ],
      [
        "\"",
        "버"
      ],
      [
        "\"",
        "수"
      ],
      [
        "\"",
        "의"
      ],
      [
        "\"",
        "죽"
      ],
      [
        "\"",
        "당신"
      ],
      [
        "\"",
        "사람"
      ],
      [
        "\"",
        "회사"
      ],
      [
        "'",
        "]"
      ],
      [
        "'",
        "강"
      ],
      [
        "'",
        "죽"
      ],
      [
        "-",
        "-"
      ],
      [
        "-",
        "4"
      ],
      [
        ".",
        "',"
      ],
      [
        "1",
        ","
      ],
      [
        "1",
        "3"
      ],
      [
        "1",
        "5"
      ],
      [
        "1",
        "6"
      ],
      [
        "1",
        "]"
      ],
      [
        "1",
        "회"
      ],
      [
        "1",
        "5개의"
      ],
      [
        "1",
        "7문장"
      ],
      [
        "1",
        "*,"
      ],
      [
        "1",
        "-4"
      ],
      [
        "2",
        ")"
      ],
      [
        "2",
        "8"
      ],
      [
        "2",
        "]"
      ],
      [
        "2",
        "회"
      ],
      [
        "2",
        "5문장"
      ],
      [
        "2",
        "000"
      ],
      [
        "3",
        "2"
      ],
      [
        "3",
        "번"
      ],
      [
        "3",
        "회"
      ],
      [
        "3",
        "가지"
      ],
      [
        "3",
        "년의"
      ],
      [
        "3",
        "50단어"
      ],
      [
        "5",
        "4"
      ],
      [
        "5",
        "개"
      ],
      [
        "5",
        "회"
      ],
      [
        "6",
        "0"
      ],
      [
        "6",
        "00"
      ],
      [
        "6",
        "00단어"
      ],
      [
        "8",
        "번"
      ],
      [
        "8",
        "00단어"
      ],
      [
        "A",
        "pp"
      ],
      [
        "C",
        "B"
      ],
      [
        "D",
        "R"
      ],
      [
        "E",
        "CB"
      ],
      [
        "H",
        "F"
      ],
      [
        "H",
        "T"
      ],
      [
        "I",
        "I"
      ],
      [
        "J",
        "av"
      ],
      [
        "L",
        "DR"
      ],
      [
        "P",
        "i"
      ],
      [
        "R",
        "E"
      ],
      [
        "S",
        "RE"
      ],
      [
        "T",
        "C"
      ],
      [
        "T",
        "LDR"
      ],
      [
        "U",
        "TC"
      ],
      [
        "V",
        "HF"
      ],
      [
        "X",
        "ML"
      ],
      [
        "[",
        "u"
      ],
      [
        "[",
        "코드"
      ],
      [
        "a",
        "c"
      ],
      [
        "a",
        "라는"
      ],
      [
        "c",
        "on"
      ],
      [
        "e",
        "l"
      ],
      [
        "i",
        "k"
      ],
      [
        "i",
        "l"
      ],
      [
        "i",
        "p"
      ],
      [
        "j",
        "ian"
      ],
      [
        "o",
        "f"
      ],
      [
        "w",
        "ik"
      ],
      [
        "x",
        "el"
      ],
      [
        "가",
        "격"
      ],
      [
        "가",
        "요"
      ],
      [
        "가",
        "족"
      ],
      [
        "가",
        "질"
      ],
      [
        "간",
        "결"
      ],
      [
        "간",
        "달"
      ],
      [
        "강",
        "한"
      ],
      [
        "거",
        "리"
      ],
      [
        "건",
        "강"
      ],
      [
        "게",
        "\"라는"
      ],
      [
        "격",
        "투"
      ],
      [
        "결",
        "혼"
      ],
      [
        "경",
        "고"
      ],
      [
        "경",
        "력"
      ],
      [
        "경",
        "찰"
      ],
      [
        "계",
        "산"
      ],
      [
        "계",
        "속"
      ],
      [
        "고",
        "려"
      ],
      [
        "고",
        "등학교"
      ],
      [
        "골",
        "든"
      ],
      [
        "공",
        "부"
      ],
      [
        "공",
        "의"
      ],
      [
        "관",
        "계"
      ],
      [
        "관",
        "련"
      ],
      [
        "관",
        "점"
      ],
      [
        "교",
        "육"
      ],
      [
        "구",
        "매"
      ],
      [
        "구",
        "자"
      ],
      [
        "국",
        "어"
      ],
      [
        "그",
        "룹"
      ],
      [
        "긍",
        "정"
      ],
      [
        "기",
        ","
      ],
      [
        "기",
        "다"
      ],
      [
        "기",
        "에"
      ],
      [
        "기",
        "후"
      ],
      [
        "길",
        "이"
      ],
      [
        "까",
        "요"
      ],
      [
        "까",
        "지"
      ],
      [
        "나",
        "나"
      ],
      [
        "나",
        "누"
      ],
      [
        "나",
        "다"
      ],
      [
        "난",
        "감"
      ],
      [
        "남",
        "어"
      ],
      [
        "널",
        "드"
      ],
      [
        "넷",
        "의"
      ],
      [
        "농",
        "작"
      ],
      [
        "높",
        "이"
      ],
      [
        "누",
        "가"
      ],
      [
        "뉴",
        "스"
      ],
      [
        "뉴",
        "욕"
      ],
      [
        "는",
        "가"
      ],
      [
        "니",
        "아"
      ],
      [
        "다",
        "'"
      ],
      [
        "다",
        "\"라는"
      ],
      [
        "대",
        "중"
      ],
      [
        "대",
        "학생"
      ],
      [
        "도",
        "널드"
      ],
      [
        "돌",
        "려"
      ],
      [
        "동",
        "안"
      ],
      [
        "동",
        "의"
      ],
      [
        "동",
        "전"
      ],
      [
        "드",
        "위치"
      ],
      [
        "디",
        "자"
      ],
      [
        "따",
        "뜻"
      ],
      [
        "때",
        "문"
      ],
      [
        "똑",
        "똑"
      ],
      [
        "라",
        "디오"
      ],
      [
        "랍",
        "어"
      ],
      [
        "랍",
        "니다"
      ],
      [
        "랜",
        "드"
      ],
      [
        "러",
        "디"
      ],
      [
        "럼",
        "프"
      ],
      [
        "레",
        "드"
      ],
      [
        "레",
        "이"
      ],
      [
        "레",
        "터"
      ],
      [
        "로",
        "드"
      ],
      [
        "롬",
        "프트"
      ],
      [
        "루",
        "프"
      ],
      [
        "류",
        "장"
      ],
      [
        "르",
        "헨"
      ],
      [
        "릅",
        "니다"
      ],
      [
        "리",
        "버"
      ],
      [
        "리",
        "터"
      ],
      [
        "리",
        "텔"
      ],
      [
        "리",
        "트"
      ],
      [
        "리",
        "라는"
      ],
      [
        "리",
        "학자"
      ],
      [
        "링",
        "크"
      ],
      [
        "마",
        "사"
      ],
      [
        "마",
        "천"
      ],
      [
        "마",
        "케"
      ],
      [
        "마",
        "트"
      ],
      [
        "마",
        "리의"
      ],
      [
        "만",
        "나"
      ],
      [
        "만",
        "날"
      ],
      [
        "만",
        "한"
      ],
      [
        "말",
        "씀"
      ],
      [
        "매",
        "력"
      ],
      [
        "멜",
        "버"
      ],
      [
        "명",
        "\""
      ],
      [
        "뭐",
        "라고"
      ],
      [
        "미",
        "의"
      ],
      [
        "미",
        "치"
      ],
      [
        "미",
        "친"
      ],
      [
        "민",
        "지"
      ],
      [
        "바",
        "이"
      ],
      [
        "바",
        "나나"
      ],
      [
        "바",
        "랍니다"
      ],
      [
        "박",
        "테"
      ],
      [
        "방",
        "식"
      ],
      [
        "방",
        "정"
      ],
      [
        "번",
        "역"
      ],
      [
        "베",
        "트"
      ],
      [
        "벼",
        "룩"
      ],
      [
        "보",
        "낼"
      ],
      [
        "보",
        "유"
      ],
      [
        "부",
        "르"
      ],
      [
        "부",
        "부"
      ],
      [
        "부",
        "터"
      ],
      [
        "부",
        "\"라는"
      ],
      [
        "븐",
        "슨"
      ],
      [
        "비",
        "교"
      ],
      [
        "비",
        "슷"
      ],
      [
        "비",
        "즈"
      ],
      [
        "사",
        "고"
      ],
      [
        "사",
        "막"
      ],
      [
        "사",
        "진"
      ],
      [
        "상",
        "상"
      ],
      [
        "상",
        "큼"
      ],
      [
        "상",
        "향"
      ],
      [
        "샌",
        "드위치"
      ],
      [
        "생",
        "명"
      ],
      [
        "선",
        "거"
      ],
      [
        "선",
        "사"
      ],
      [
        "선",
        "수"
      ],
      [
        "선",
        "체"
      ],
      [
        "설",
        "정"
      ],
      [
        "성",
        "과"
      ],
      [
        "성",
        "의"
      ],
      [
        "소",
        "설"
      ],
      [
        "소",
        "의"
      ],
      [
        "소",
        "년의"
      ],
      [
        "손",
        "상"
      ],
      [
        "쇼",
        "핑"
      ],
      [
        "수",
        "정"
      ],
      [
        "스",
        "와"
      ],
      [
        "스",
        "토"
      ],
      [
        "스",
        "레드"
      ],
      [
        "스",
        "마트"
      ],
      [
        "슬",
        "루프"
      ],
      [
        "시",
        "골"
      ],
      [
        "시",
        "아"
      ],
      [
        "식",
        "민지"
      ],
      [
        "신",
        "발"
      ],
      [
        "신",
        "입"
      ],
      [
        "신",
        "제품"
      ],
      [
        "심",
        "리학자"
      ],
      [
        "싸",
        "움"
      ],
      [
        "아",
        "닌"
      ],
      [
        "아",
        "티"
      ],
      [
        "아",
        "하"
      ],
      [
        "아",
        "할"
      ],
      [
        "아",
        "랍어"
      ],
      [
        "아",
        "르헨"
      ],
      [
        "알",
        "렉"
      ],
      [
        "알",
        "려"
      ],
      [
        "앰",
        "버"
      ],
      [
        "양",
        "육"
      ],
      [
        "어",
        "느"
      ],
      [
        "어",
        "요"
      ],
      [
        "에",
        ","
      ],
      [
        "영",
        "국"
      ],
      [
        "올",
        "해"
      ],
      [
        "용",
        "도"
      ],
      [
        "워",
        "크"
      ],
      [
        "웹",
        "사이"
      ],
      [
        "유",
        "사"
      ],
      [
        "유",
        "의"
      ],
      [
        "유",
        "치"
      ],
      [
        "유",
        "형"
      ],
      [
        "으",
        "며"
      ],
      [
        "은",
        "색"
      ],
      [
        "은",
        "지"
      ],
      [
        "음",
        "악"
      ],
      [
        "의",
        "미"
      ],
      [
        "이",
        "길"
      ],
      [
        "이",
        "너"
      ],
      [
        "이",
        "렇"
      ],
      [
        "익",
        "사"
      ],
      [
        "인",
        "공"
      ],
      [
        "인",
        "용"
      ],
      [
        "인",
        "플"
      ],
      [
        "입",
        "니까"
      ],
      [
        "자",
        "연"
      ],
      [
        "자",
        "주"
      ],
      [
        "자",
        "체"
      ],
      [
        "자",
        "'라는"
      ],
      [
        "작",
        "자"
      ],
      [
        "장",
        "애"
      ],
      [
        "장",
        "난감"
      ],
      [
        "재",
        "능"
      ],
      [
        "적",
        "입니까"
      ],
      [
        "전",
        "공"
      ],
      [
        "전",
        "기"
      ],
      [
        "정",
        "부"
      ],
      [
        "정",
        "책"
      ],
      [
        "정",
        "류장"
      ],
      [
        "제",
        "외"
      ],
      [
        "젠",
        "테"
      ],
      [
        "젤",
        "다"
      ],
      [
        "조",
        "니"
      ],
      [
        "조",
        "사"
      ],
      [
        "종",
        "류"
      ],
      [
        "주",
        "기"
      ],
      [
        "주",
        "의"
      ],
      [
        "주",
        "십시오,"
      ],
      [
        "줄",
        "거리"
      ],
      [
        "중",
        "요"
      ],
      [
        "중",
        "성자"
      ],
      [
        "증",
        "가"
      ],
      [
        "증",
        "명"
      ],
      [
        "지",
        "침"
      ],
      [
        "직",
        "업"
      ],
      [
        "집",
        "합"
      ],
      [
        "창",
        "의"
      ],
      [
        "첫",
        "째,"
      ],
      [
        "청",
        "소년"
      ],
      [
        "체",
        "*"
      ],
      [
        "체",
        "입니다"
      ],
      [
        "최",
        "대"
      ],
      [
        "추",
        "천"
      ],
      [
        "축",
        "제"
      ],
      [
        "충",
        "분"
      ],
      [
        "친",
        "화"
      ],
      [
        "침",
        "략"
      ],
      [
        "칸",
        "나다"
      ],
      [
        "캡",
        "슐"
      ],
      [
        "커",
        "버"
      ],
      [
        "코",
        "딩"
      ],
      [
        "코",
        "틀"
      ],
      [
        "테",
        "니스"
      ],
      [
        "트",
        "럼프"
      ],
      [
        "티",
        "나"
      ],
      [
        "패",
        "러디"
      ],
      [
        "편",
        "의"
      ],
      [
        "편",
        "향"
      ],
      [
        "포",
        "르"
      ],
      [
        "품",
        "질"
      ],
      [
        "프",
        "롬프트"
      ],
      [
        "피",
        "하"
      ],
      [
        "학",
        "술"
      ],
      [
        "한",
        "지"
      ],
      [
        "항",
        "목"
      ],
      [
        "항",
        "상"
      ],
      [
        "해",
        ":"
      ],
      [
        "향",
        "상"
      ],
      [
        "허",
        "드"
      ],
      [
        "현",
        "실"
      ],
      [
        "호",
        "텔"
      ],
      [
        "홍",
        "콩"
      ],
      [
        "화",
        "가"
      ],
      [
        "힐",
        "리어"
      ],
      [
        "으로",
        ","
      ],
      [
        "사용",
        "자"
      ],
      [
        "기호",
        "입니다"
      ],
      [
        "다음",
        "의"
      ],
      [
        "마세요",
        ":"
      ],
      [
        "감싸",
        "진"
      ],
      [
        "이름",
        "의"
      ],
      [
        "***",
        "."
      ],
      [
        "대해",
        "서"
      ],
      [
        "10",
        "센트"
      ],
      [
        "이야기",
        "의"
      ],
      [
        "20",
        "2"
      ],
      [
        "20",
        "단어"
      ],
      [
        "20",
        "개의"
      ],
      [
        "한다",
        ":"
      ],
      [
        "기울",
        "여"
      ],
      [
        "이탤릭",
        "체"
      ],
      [
        "나타",
        "내"
      ],
      [
        "아무",
        "것"
      ],
      [
        "en",
        "t"
      ],
      [
        "얼마",
        "인가요"
      ],
      [
        "대통령",
        "의"
      ],
      [
        "*이탤릭",
        "체*"
      ],
      [
        "구문",
        "*"
      ],
      [
        "사실",
        "인가요"
      ],
      [
        "페이",
        "스"
      ],
      [
        "```",
        "JSON"
      ],
      [
        "[주소]",
        ","
      ],
      [
        "엔지니어",
        "의"
      ],
      [
        "30",
        "문장"
      ],
      [
        "....",
        "]"
      ],
      [
        "만드",
        "세요"
      ],
      [
        "사이",
        "의"
      ],
      [
        "세계",
        "의"
      ],
      [
        "포인트",
        "입니다"
      ],
      [
        "000",
        "원인"
      ],
      [
        "10대",
        "의"
      ],
      [
        "*기울임",
        "꼴"
      ],
      [
        "이루어",
        "져야"
      ],
      [
        "일본",
        "의"
      ],
      [
        "프레",
        "젠테"
      ],
      [
        "ser",
        "name"
      ],
      [
        "그래",
        "픽"
      ],
      [
        "껍질",
        "의"
      ],
      [
        "스티",
        "븐슨"
      ],
      [
        "인터",
        "넷의"
      ],
      [
        "취약",
        "점"
      ],
      [
        "태양",
        "계"
      ],
      [
        "19세",
        "기"
      ],
      [
        "\"열쇠",
        "\"라는"
      ],
      [
        "16",
        "세"
      ],
      [
        "1-4",
        "8"
      ],
      [
        "2000",
        "년"
      ],
      [
        "HT",
        "ML"
      ],
      [
        "Pi",
        "xel"
      ],
      [
        "[u",
        "sername"
      ],
      [
        "jian",
        "g"
      ],
      [
        "간달",
        "프"
      ],
      [
        "경고",
        "주의"
      ],
      [
        "구자",
        "라"
      ],
      [
        "기다",
        "리"
      ],
      [
        "농작",
        "물"
      ],
      [
        "디자",
        "이너"
      ],
      [
        "라디오",
        "파"
      ],
      [
        "리텔",
        "링"
      ],
      [
        "리트",
        "리버"
      ],
      [
        "마케",
        "팅"
      ],
      [
        "멜버",
        "른"
      ],
      [
        "바이",
        "든"
      ],
      [
        "박테",
        "리아"
      ],
      [
        "방정",
        "식"
      ],
      [
        "베트",
        "남어"
      ],
      [
        "비즈",
        "니스"
      ],
      [
        "스와",
        "힐리어"
      ],
      [
        "스토",
        "리텔링"
      ],
      [
        "스마트",
        "폰"
      ],
      [
        "아르헨",
        "티나"
      ],
      [
        "웹사이",
        "트"
      ],
      [
        "유치",
        "원"
      ],
      [
        "유형",
        "의"
      ],
      [
        "인플",
        "레이션"
      ],
      [
        "중성자",
        "의"
      ],
      [
        "집합",
        "체입니다"
      ],
      [
        "코틀",
        "린"
      ],
      [
        "트럼프",
        "의"
      ],
      [
        "프레젠테",
        "이션"
      ],
      [
        "\"",
        "6"
      ],
      [
        "\"",
        "B"
      ],
      [
        "\"",
        "N"
      ],
      [
        "\"",
        "h"
      ],
      [
        "\"",
        "s"
      ],
      [
        "\"",
        "가"
      ],
      [
        "\"",
        "결"
      ],
      [
        "\"",
        "공"
      ],
      [
        "\"",
        "그"
      ],
      [
        "\"",
        "나"
      ],
      [
        "\"",
        "노"
      ],
      [
        "\"",
        "녹"
      ],
      [
        "\"",
        "농"
      ],
      [
        "\"",
        "랩"
      ],
      [
        "\"",
        "무"
      ],
      [
        "\"",
        "발"
      ],
      [
        "\"",
        "방"
      ],
      [
        "\"",
        "법"
      ],
      [
        "\"",
        "별"
      ],
      [
        "\"",
        "살"
      ],
      [
        "\"",
        "숲"
      ],
      [
        "\"",
        "싱"
      ],
      [
        "\"",
        "앱"
      ],
      [
        "\"",
        "에"
      ],
      [
        "\"",
        "옳"
      ],
      [
        "\"",
        "우"
      ],
      [
        "\"",
        "운"
      ],
      [
        "\"",
        "위"
      ],
      [
        "\"",
        "있"
      ],
      [
        "\"",
        "잉"
      ],
      [
        "\"",
        "접"
      ],
      [
        "\"",
        "채"
      ],
      [
        "\"",
        "체"
      ],
      [
        "\"",
        "폭"
      ],
      [
        "\"",
        "피"
      ],
      [
        "\"",
        "혁"
      ],
      [
        "\"",
        "홈"
      ],
      [
        "\"",
        "회"
      ],
      [
        "\"",
        "사용"
      ],
      [
        "\"",
        "최소"
      ],
      [
        "\"",
        "다른"
      ],
      [
        "\"",
        "추가"
      ],
      [
        "\"",
        "어떤"
      ],
      [
        "\"",
        "요약"
      ],
      [
        "\"",
        "이야기"
      ],
      [
        "\"",
        "수수께끼"
      ],
      [
        "\"",
        "그리"
      ],
      [
        "\"",
        "대통령"
      ],
      [
        "\"",
        "도와드릴"
      ],
      [
        "\"",
        "시간"
      ],
      [
        "\"",
        "프로젝트"
      ],
      [
        "\"",
        "고양이"
      ],
      [
        "\"",
        "결과"
      ],
      [
        "\"",
        "경제"
      ],
      [
        "\"",
        "세금"
      ],
      [
        "\"",
        "세상"
      ],
      [
        "\"",
        "파일"
      ],
      [
        "\"",
        "평화"
      ],
      [
        "\"",
        "그러나"
      ],
      [
        "\"",
        "마법사"
      ],
      [
        "\"",
        "계산"
      ],
      [
        "\"",
        "고려"
      ],
      [
        "\"",
        "관계"
      ],
      [
        "\"",
        "기후"
      ],
      [
        "\"",
        "마천"
      ],
      [
        "\"",
        "사진"
      ],
      [
        "\"",
        "정류장"
      ],
      [
        "\"",
        "취약점"
      ],
      [
        "\"",
        "아르헨티나"
      ],
      [
        "'",
        ")"
      ],
      [
        "'",
        "B"
      ],
      [
        "'",
        "개"
      ],
      [
        "'",
        "답"
      ],
      [
        "'",
        "도"
      ],
      [
        "'",
        "문"
      ],
      [
        "'",
        "보"
      ],
      [
        "'",
        "비"
      ],
      [
        "'",
        "사"
      ],
      [
        "'",
        "슬"
      ],
      [
        "'",
        "아"
      ],
      [
        "'",
        "예"
      ],
      [
        "'",
        "위"
      ],
      [
        "'",
        "의"
      ],
      [
        "'",
        "이"
      ],
      [
        "'",
        "저"
      ],
      [
        "'",
        "점"
      ],
      [
        "'",
        "지"
      ],
      [
        "'",
        "타"
      ],
      [
        "'",
        "포"
      ],
      [
        "'",
        "하"
      ],
      [
        "'",
        "섹션"
      ],
      [
        "'",
        "대답"
      ],
      [
        "'",
        "JSON"
      ],
      [
        "'",
        "구성"
      ],
      [
        "'",
        "아니"
      ],
      [
        "'",
        "일정"
      ],
      [
        "'",
        "ar"
      ],
      [
        "'",
        "가능"
      ],
      [
        "'",
        "대학"
      ],
      [
        "'",
        "경제"
      ],
      [
        "'",
        "관리"
      ],
      [
        "'",
        "목표"
      ],
      [
        "'",
        "스트레스"
      ],
      [
        "'",
        "경찰"
      ],
      [
        "'",
        "미친"
      ],
      [
        "'",
        "벼룩"
      ],
      [
        "'",
        "선사"
      ],
      [
        "'",
        "익사"
      ],
      [
        "'",
        "축제"
      ],
      [
        "'",
        "침략"
      ],
      [
        "'",
        "패러디"
      ],
      [
        "(",
        "1"
      ],
      [
        "(",
        "3"
      ],
      [
        "(",
        "a"
      ],
      [
        "(",
        "각"
      ],
      [
        "(",
        "노"
      ],
      [
        "(",
        "단"
      ],
      [
        "(",
        "인"
      ],
      [
        "(",
        "추"
      ],
      [
        "(",
        "섹션"
      ],
      [
        "(",
        "기울"
      ],
      [
        "(",
        "```"
      ],
      [
        "(",
        "5문장"
      ],
      [
        "(",
        "구두점"
      ],
      [
        "(",
        "'내"
      ],
      [
        "(",
        "100단어"
      ],
      [
        "(",
        "2)"
      ],
      [
        ")",
        "."
      ],
      [
        ")",
        ":"
      ],
      [
        ")",
        "여야"
      ],
      [
        "*",
        "나"
      ],
      [
        "*",
        "해"
      ],
      [
        "*",
        "섹션"
      ],
      [
        "*",
        "표시"
      ],
      [
        "*",
        "마크다운"
      ],
      [
        "*",
        "쉼표"
      ],
      [
        "*",
        "재미있"
      ],
      [
        "*",
        "텍스트*"
      ],
      [
        "*",
        "적어도"
      ],
      [
        "*",
        "3년의"
      ],
      [
        "*",
        "바나나"
      ],
      [
        "*",
        "시골"
      ],
      [
        "*",
        "기울여"
      ],
      [
        "*",
        ")."
      ],
      [
        "+",
        "1"
      ],
      [
        "+",
        "00"
      ],
      [
        ",",
        "_"
      ],
      [
        ".",
        "5"
      ],
      [
        ".",
        "***"
      ],
      [
        ".",
        "or"
      ],
      [
        ".",
        "wik"
      ],
      [
        ".",
        "')"
      ],
      [
        "/",
        "/"
      ],
      [
        "/",
        "2"
      ],
      [
        "/",
        "R"
      ],
      [
        "/",
        "굵"
      ],
      [
        "/",
        "강의"
      ],
      [
        "/",
        "wik"
      ],
      [
        "0",
        "5"
      ],
      [
        "1",
        "7"
      ],
      [
        "1",
        ":"
      ],
      [
        "1",
        "과"
      ],
      [
        "1",
        "부"
      ],
      [
        "1",
        "의"
      ],
      [
        "1",
        "문장"
      ],
      [
        "1",
        "00"
      ],
      [
        "1",
        "2개의"
      ],
      [
        "1",
        "200단어"
      ],
      [
        "1",
        "1개의"
      ],
      [
        "1",
        "1,"
      ],
      [
        "1",
        "20단어"
      ],
      [
        "1",
        "+1"
      ],
      [
        "1",
        ".5"
      ],
      [
        "1",
        "/2"
      ],
      [
        "2",
        "*"
      ],
      [
        "2",
        "5"
      ],
      [
        "2",
        ":"
      ],
      [
        "2",
        "권"
      ],
      [
        "2",
        "부"
      ],
      [
        "2",
        "의"
      ],
      [
        "2",
        "차"
      ],
      [
        "2",
        "문장"
      ],
      [
        "2",
        "단락"
      ],
      [
        "2",
        "50"
      ],
      [
        "2",
        "5개의"
      ],
      [
        "2",
        "*,"
      ],
      [
        "3",
        "6"
      ],
      [
        "3",
        "9"
      ],
      [
        "3",
        ":"
      ],
      [
        "3",
        "A"
      ],
      [
        "3",
        "개"
      ],
      [
        "3",
        "권"
      ],
      [
        "3",
        "년"
      ],
      [
        "3",
        "부"
      ],
      [
        "3",
        "일"
      ],
      [
        "3",
        "문장"
      ],
      [
        "3",
        "00"
      ],
      [
        "3",
        "*."
      ],
      [
        "3",
        "부분"
      ],
      [
        "3",
        "마리의"
      ],
      [
        "3",
        "1-48"
      ],
      [
        "4",
        ","
      ],
      [
        "4",
        "5"
      ],
      [
        "4",
        "9"
      ],
      [
        "4",
        "개"
      ],
      [
        "4",
        "번"
      ],
      [
        "4",
        "부"
      ],
      [
        "5",
        "6"
      ],
      [
        "5",
        "부"
      ],
      [
        "5",
        "분"
      ],
      [
        "5",
        "일"
      ],
      [
        "5",
        "00단어"
      ],
      [
        "5",
        "1입니다"
      ],
      [
        "5",
        "2입니다"
      ],
      [
        "5",
        "단계"
      ],
      [
        "6",
        "7"
      ],
      [
        "6",
        "칼"
      ],
      [
        "6",
        "학"
      ],
      [
        "6",
        "인가"
      ],
      [
        "7",
        ","
      ],
      [
        "7",
        "개"
      ],
      [
        "7",
        "00"
      ],
      [
        "7",
        "년의"
      ],
      [
        "9",
        "개의"
      ],
      [
        ":",
        "28"
      ],
      [
        ":",
        "//"
      ],
      [
        ":",
        "05"
      ],
      [
        "<",
        "b"
      ],
      [
        "=",
        "3"
      ],
      [
        "A",
        "D"
      ],
      [
        "A",
        "I"
      ],
      [
        "A",
        "m"
      ],
      [
        "B",
        "M"
      ],
      [
        "B",
        "i"
      ],
      [
        "B",
        "u"
      ],
      [
        "C",
        "I"
      ],
      [
        "C",
        "',"
      ],
      [
        "D",
        "ar"
      ],
      [
        "F",
        "ac"
      ],
      [
        "G",
        "M"
      ],
      [
        "G",
        "l"
      ],
      [
        "H",
        "D"
      ],
      [
        "H",
        "a"
      ],
      [
        "H",
        "o"
      ],
      [
        "I",
        "L"
      ],
      [
        "I",
        "O"
      ],
      [
        "I",
        "Q"
      ],
      [
        "I",
        "S"
      ],
      [
        "I",
        "의"
      ],
      [
        "I",
        ",_"
      ],
      [
        "I",
        "BM"
      ],
      [
        "J",
        "e"
      ],
      [
        "K",
        "ar"
      ],
      [
        "L",
        "e"
      ],
      [
        "L",
        "u"
      ],
      [
        "L",
        "il"
      ],
      [
        "M",
        "o"
      ],
      [
        "M",
        "ar"
      ],
      [
        "M",
        "ic"
      ],
      [
        "N",
        "Y"
      ],
      [
        "O",
        "n"
      ],
      [
        "P",
        "r"
      ],
      [
        "P",
        "y"
      ],
      [
        "S",
        "t"
      ],
      [
        "S",
        "AP"
      ],
      [
        "T",
        "V"
      ],
      [
        "T",
        "h"
      ],
      [
        "T",
        "r"
      ],
      [
        "U",
        "CI"
      ],
      [
        "V",
        "ar"
      ],
      [
        "V",
        "ent"
      ],
      [
        "X",
        "'"
      ],
      [
        "[",
        "d"
      ],
      [
        "[",
        "j"
      ],
      [
        "[",
        "প"
      ],
      [
        "[",
        "시"
      ],
      [
        "[",
        "조"
      ],
      [
        "[",
        "에세이"
      ],
      [
        "[",
        "질문"
      ],
      [
        "[",
        "au"
      ],
      [
        "[",
        "위치"
      ],
      [
        "[",
        "'나"
      ],
      [
        "[",
        "전화"
      ],
      [
        "[",
        "name"
      ],
      [
        "[",
        "가격"
      ],
      [
        "[",
        "도널드"
      ],
      [
        "[",
        "웹사이트"
      ],
      [
        "[",
        "'개"
      ],
      [
        "_",
        "II"
      ],
      [
        "_",
        "of"
      ],
      [
        "_",
        "Tr"
      ],
      [
        "a",
        "d"
      ],
      [
        "a",
        "s"
      ],
      [
        "a",
        "t"
      ],
      [
        "a",
        "z"
      ],
      [
        "a",
        "'의"
      ],
      [
        "a",
        ".or"
      ],
      [
        "b",
        ")"
      ],
      [
        "b",
        "일"
      ],
      [
        "b",
        "oo"
      ],
      [
        "c",
        "á"
      ],
      [
        "c",
        "ủ"
      ],
      [
        "c",
        "의"
      ],
      [
        "c",
        "ic"
      ],
      [
        "d",
        "i"
      ],
      [
        "d",
        "o"
      ],
      [
        "d",
        "ạ"
      ],
      [
        "d",
        "ay"
      ],
      [
        "d",
        "a라는"
      ],
      [
        "d",
        "_II"
      ],
      [
        "e",
        ","
      ],
      [
        "e",
        "]"
      ],
      [
        "e",
        "t"
      ],
      [
        "e",
        "라는"
      ],
      [
        "e",
        "boo"
      ],
      [
        "e",
        "di"
      ],
      [
        "f",
        "ac"
      ],
      [
        "g",
        "/wik"
      ],
      [
        "h",
        "i"
      ],
      [
        "i",
        "u"
      ],
      [
        "i",
        "th"
      ],
      [
        "i",
        "\"의"
      ],
      [
        "i",
        "/R"
      ],
      [
        "k",
        ","
      ],
      [
        "k",
        "s"
      ],
      [
        "k",
        "do"
      ],
      [
        "l",
        "o"
      ],
      [
        "l",
        "à"
      ],
      [
        "l",
        "au"
      ],
      [
        "l",
        "ian"
      ],
      [
        "l",
        "i\"의"
      ],
      [
        "m",
        "ẹ"
      ],
      [
        "m",
        "on"
      ],
      [
        "n",
        "e"
      ],
      [
        "n",
        "t"
      ],
      [
        "n",
        "u"
      ],
      [
        "o",
        "s"
      ],
      [
        "o",
        "et"
      ],
      [
        "o",
        "li\"의"
      ],
      [
        "p",
        "s"
      ],
      [
        "p",
        "ar"
      ],
      [
        "p",
        "oet"
      ],
      [
        "r",
        ">"
      ],
      [
        "r",
        "a"
      ],
      [
        "r",
        "th"
      ],
      [
        "r",
        "il"
      ],
      [
        "r",
        "os"
      ],
      [
        "s",
        "w"
      ],
      [
        "s",
        "라는"
      ],
      [
        "s",
        "on"
      ],
      [
        "t",
        ","
      ],
      [
        "t",
        "t"
      ],
      [
        "t",
        "ent"
      ],
      [
        "u",
        "\"의"
      ],
      [
        "u",
        "nt"
      ],
      [
        "u",
        "ra"
      ],
      [
        "v",
        "s"
      ],
      [
        "v",
        "y"
      ],
      [
        "v",
        "ụ"
      ],
      [
        "w",
        "n"
      ],
      [
        "x",
        "y"
      ],
      [
        "z",
        "의"
      ],
      [
        "ô",
        "i"
      ],
      [
        "ণ",
        "্"
      ],
      [
        "য",
        "]"
      ],
      [
        "ệ",
        "m"
      ],
      [
        "가",
        ","
      ],
      [
        "가",
        "게"
      ],
      [
        "가",
        "난"
      ],
      [
        "가",
        "논"
      ],
      [
        "가",
        "르"
      ],
      [
        "가",
        "운"
      ],
      [
        "가",
        "의"
      ],
      [
        "가",
        "정"
      ],
      [
        "가",
        "치"
      ],
      [
        "가",
        "입니다"
      ],
      [
        "각",
        "형"
      ],
      [
        "간",
        "다"
      ],
      [
        "간",
        "략"
      ],
      [
        "갈",
        "등"
      ],
      [
        "갈",
        "색"
      ],
      [
        "갈",
        "어"
      ],
      [
        "감",
        "귤"
      ],
      [
        "감",
        "기"
      ],
      [
        "감",
        "싼"
      ],
      [
        "감",
        "소의"
      ],
      [
        "갑",
        "니다"
      ],
      [
        "강",
        "력"
      ],
      [
        "개",
        "선"
      ],
      [
        "개",
        "인"
      ],
      [
        "거",
        "루"
      ],
      [
        "거",
        "부"
      ],
      [
        "거",
        "석"
      ],
      [
        "거",
        "품"
      ],
      [
        "건",
        "물"
      ],
      [
        "검",
        "토"
      ],
      [
        "검",
        "은색"
      ],
      [
        "게",
        "재"
      ],
      [
        "겐",
        "'"
      ],
      [
        "겨",
        "냥"
      ],
      [
        "겨",
        "울"
      ],
      [
        "겨",
        "움"
      ],
      [
        "겨",
        "졌"
      ],
      [
        "격",
        "자"
      ],
      [
        "견",
        "딜"
      ],
      [
        "결",
        "정"
      ],
      [
        "경",
        "비"
      ],
      [
        "경",
        "우"
      ],
      [
        "경",
        "주"
      ],
      [
        "계",
        "절"
      ],
      [
        "계",
        "정"
      ],
      [
        "고",
        "나"
      ],
      [
        "고",
        "록"
      ],
      [
        "고",
        "자"
      ],
      [
        "골",
        "어"
      ],
      [
        "곳",
        "입니다"
      ],
      [
        "공",
        "개"
      ],
      [
        "공",
        "격"
      ],
      [
        "공",
        "룡"
      ],
      [
        "공",
        "연"
      ],
      [
        "공",
        "정"
      ],
      [
        "공",
        "주"
      ],
      [
        "공",
        "중"
      ],
      [
        "공",
        "학"
      ],
      [
        "관",
        "'"
      ],
      [
        "관",
        "중"
      ],
      [
        "광",
        "대"
      ],
      [
        "괴",
        "물"
      ],
      [
        "교",
        "수"
      ],
      [
        "교",
        "와"
      ],
      [
        "교",
        "의"
      ],
      [
        "교",
        "통"
      ],
      [
        "교",
        "회"
      ],
      [
        "구",
        "금"
      ],
      [
        "구",
        "스"
      ],
      [
        "구",
        "식"
      ],
      [
        "구",
        "의"
      ],
      [
        "구",
        "조"
      ],
      [
        "구",
        "체"
      ],
      [
        "구",
        "하"
      ],
      [
        "구",
        "현"
      ],
      [
        "구",
        "해야"
      ],
      [
        "구",
        "인가"
      ],
      [
        "국",
        "민"
      ],
      [
        "국",
        "세"
      ],
      [
        "국",
        "의"
      ],
      [
        "군",
        "가"
      ],
      [
        "군",
        "사"
      ],
      [
        "굴",
        "렸"
      ],
      [
        "권",
        "력"
      ],
      [
        "귀",
        "비"
      ],
      [
        "그",
        "램"
      ],
      [
        "그",
        "렇"
      ],
      [
        "그",
        "의"
      ],
      [
        "그",
        "라인"
      ],
      [
        "극",
        "의"
      ],
      [
        "근",
        "\","
      ],
      [
        "글",
        "꼴"
      ],
      [
        "글",
        "\"라는"
      ],
      [
        "급",
        "\""
      ],
      [
        "급",
        "여"
      ],
      [
        "기",
        "계"
      ],
      [
        "기",
        "디"
      ],
      [
        "기",
        "립"
      ],
      [
        "기",
        "물"
      ],
      [
        "기",
        "본"
      ],
      [
        "기",
        "분"
      ],
      [
        "기",
        "쁨"
      ],
      [
        "기",
        "술"
      ],
      [
        "기",
        "심"
      ],
      [
        "기",
        "억"
      ],
      [
        "기",
        "업"
      ],
      [
        "기",
        "여"
      ],
      [
        "기",
        "준"
      ],
      [
        "기",
        "차"
      ],
      [
        "기",
        "',"
      ],
      [
        "깊",
        "이"
      ],
      [
        "깨",
        "닫"
      ],
      [
        "깨",
        "어"
      ],
      [
        "꺽",
        "쇠"
      ],
      [
        "꿈",
        ","
      ],
      [
        "끼",
        "리라는"
      ],
      [
        "나",
        "눠"
      ],
      [
        "나",
        "뉜"
      ],
      [
        "나",
        "달"
      ],
      [
        "나",
        "라"
      ],
      [
        "나",
        "르"
      ],
      [
        "나",
        "무"
      ],
      [
        "나",
        "쁜"
      ],
      [
        "나",
        "이"
      ],
      [
        "나",
        "중"
      ],
      [
        "나",
        "탈"
      ],
      [
        "나",
        "*."
      ],
      [
        "날",
        "씨"
      ],
      [
        "날",
        "입니다"
      ],
      [
        "남",
        "성"
      ],
      [
        "남",
        "아"
      ],
      [
        "낯",
        "선"
      ],
      [
        "내",
        "년"
      ],
      [
        "내",
        "부"
      ],
      [
        "너",
        "무"
      ],
      [
        "너",
        "지"
      ],
      [
        "네",
        "덜"
      ],
      [
        "네",
        "상"
      ],
      [
        "네",
        "즈"
      ],
      [
        "네",
        "트"
      ],
      [
        "네",
        "팔"
      ],
      [
        "녀",
        "의"
      ],
      [
        "년",
        "대"
      ],
      [
        "노",
        "력"
      ],
      [
        "노",
        "인"
      ],
      [
        "노",
        "출"
      ],
      [
        "노",
        "그래픽"
      ],
      [
        "놀",
        "이"
      ],
      [
        "농",
        "장"
      ],
      [
        "농",
        "부입니다"
      ],
      [
        "놓",
        "친"
      ],
      [
        "누",
        "워"
      ],
      [
        "누",
        "구인가"
      ],
      [
        "누",
        "군가"
      ],
      [
        "눈",
        "의"
      ],
      [
        "느",
        "끼"
      ],
      [
        "는",
        "다는"
      ],
      [
        "니",
        "파"
      ],
      [
        "니",
        "퍼"
      ],
      [
        "니",
        "라는"
      ],
      [
        "닙",
        "니다"
      ],
      [
        "다",
        "\""
      ],
      [
        "다",
        "르"
      ],
      [
        "다",
        "변"
      ],
      [
        "다",
        "윗"
      ],
      [
        "다",
        "인"
      ],
      [
        "다",
        "코"
      ],
      [
        "다",
        "\","
      ],
      [
        "다",
        "',"
      ],
      [
        "다",
        "'라는"
      ],
      [
        "단",
        "일"
      ],
      [
        "당",
        "나라"
      ],
      [
        "대",
        "리"
      ],
      [
        "대",
        "안"
      ],
      [
        "대",
        "왕"
      ],
      [
        "대",
        "일"
      ],
      [
        "대",
        "표"
      ],
      [
        "대",
        "부분"
      ],
      [
        "대",
        "기업"
      ],
      [
        "더",
        "러"
      ],
      [
        "더",
        "링"
      ],
      [
        "던",
        "졌"
      ],
      [
        "던",
        "지"
      ],
      [
        "던",
        "행"
      ],
      [
        "데",
        "미"
      ],
      [
        "뎁",
        "의"
      ],
      [
        "도",
        "라"
      ],
      [
        "도",
        "로"
      ],
      [
        "도",
        "망"
      ],
      [
        "도",
        "상"
      ],
      [
        "도",
        "시"
      ],
      [
        "도",
        "우"
      ],
      [
        "도",
        "의"
      ],
      [
        "도",
        "착"
      ],
      [
        "도",
        "'라는"
      ],
      [
        "독",
        "자"
      ],
      [
        "돈",
        "의"
      ],
      [
        "돌",
        "봄"
      ],
      [
        "동",
        "기"
      ],
      [
        "동",
        "복"
      ],
      [
        "동",
        "화"
      ],
      [
        "된",
        "'"
      ],
      [
        "된",
        "\","
      ],
      [
        "두",
        "어로"
      ],
      [
        "둘",
        "째,"
      ],
      [
        "뒷",
        "마"
      ],
      [
        "듀",
        "서"
      ],
      [
        "드",
        "래"
      ],
      [
        "드",
        "어"
      ],
      [
        "드",
        "클"
      ],
      [
        "드",
        "\"라는"
      ],
      [
        "드",
        "웨어"
      ],
      [
        "든",
        "지"
      ],
      [
        "들",
        "려"
      ],
      [
        "들",
        "\","
      ],
      [
        "듭",
        "니다"
      ],
      [
        "등",
        "학생"
      ],
      [
        "디",
        "인가요"
      ],
      [
        "디",
        "\"라는"
      ],
      [
        "딘",
        "가"
      ],
      [
        "땅",
        "의"
      ],
      [
        "땅",
        "콩"
      ],
      [
        "떠",
        "나"
      ],
      [
        "떠",
        "신"
      ],
      [
        "라",
        ","
      ],
      [
        "라",
        ":"
      ],
      [
        "라",
        "라"
      ],
      [
        "라",
        "면"
      ],
      [
        "라",
        "브"
      ],
      [
        "라",
        "킨"
      ],
      [
        "라",
        "텍"
      ],
      [
        "라",
        "트"
      ],
      [
        "라",
        "파"
      ],
      [
        "락",
        "의자"
      ],
      [
        "란",
        "티"
      ],
      [
        "란",
        "드어"
      ],
      [
        "랄",
        ","
      ],
      [
        "랑",
        ","
      ],
      [
        "래",
        "드클"
      ],
      [
        "랫",
        "폼"
      ],
      [
        "랭",
        "클"
      ],
      [
        "러",
        "워"
      ],
      [
        "러",
        "시아"
      ],
      [
        "런",
        "던행"
      ],
      [
        "럴",
        "드"
      ],
      [
        "레",
        "멘"
      ],
      [
        "레",
        "셋"
      ],
      [
        "레",
        "인"
      ],
      [
        "레",
        "코딩"
      ],
      [
        "렉",
        "션"
      ],
      [
        "렌",
        "더링"
      ],
      [
        "려",
        "움"
      ],
      [
        "려",
        "진"
      ],
      [
        "령",
        "',"
      ],
      [
        "례",
        "교의"
      ],
      [
        "로",
        "건"
      ],
      [
        "로",
        "리"
      ],
      [
        "로",
        "맨"
      ],
      [
        "로",
        "비"
      ],
      [
        "로",
        "저"
      ],
      [
        "로",
        "체"
      ],
      [
        "로",
        "켓"
      ],
      [
        "로",
        "소프트"
      ],
      [
        "로",
        "아티"
      ],
      [
        "론",
        "\""
      ],
      [
        "뢰",
        ","
      ],
      [
        "료",
        "의"
      ],
      [
        "료",
        "제"
      ],
      [
        "루",
        "미"
      ],
      [
        "루",
        "\"라는"
      ],
      [
        "루",
        "']"
      ],
      [
        "르",
        "너"
      ],
      [
        "르",
        "비"
      ],
      [
        "르",
        "겐'"
      ],
      [
        "르",
        "네상"
      ],
      [
        "르",
        "두어로"
      ],
      [
        "리",
        ","
      ],
      [
        "리",
        "나"
      ],
      [
        "리",
        "석"
      ],
      [
        "리",
        "오"
      ],
      [
        "리",
        "움"
      ],
      [
        "리",
        "즈"
      ],
      [
        "리",
        "치"
      ],
      [
        "리",
        "케"
      ],
      [
        "리",
        "프"
      ],
      [
        "린",
        "의"
      ],
      [
        "림",
        "의"
      ],
      [
        "림",
        "교와"
      ],
      [
        "립",
        "투"
      ],
      [
        "립",
        "리의"
      ],
      [
        "링",
        "의"
      ],
      [
        "마",
        "녀"
      ],
      [
        "마",
        "을"
      ],
      [
        "마",
        "이"
      ],
      [
        "마",
        "주"
      ],
      [
        "마",
        "토"
      ],
      [
        "마",
        "스트"
      ],
      [
        "만",
        "든"
      ],
      [
        "만",
        "성"
      ],
      [
        "만",
        "듭니다"
      ],
      [
        "많",
        "이"
      ],
      [
        "말",
        "투"
      ],
      [
        "망",
        "아"
      ],
      [
        "맞",
        "춰"
      ],
      [
        "매",
        "달"
      ],
      [
        "매",
        "일"
      ],
      [
        "매",
        "칭"
      ],
      [
        "맥",
        "락"
      ],
      [
        "맥",
        "퀸"
      ],
      [
        "머",
        "니"
      ],
      [
        "머",
        "지"
      ],
      [
        "먹",
        "이"
      ],
      [
        "메",
        "시"
      ],
      [
        "메",
        "트"
      ],
      [
        "메",
        "네즈"
      ],
      [
        "면",
        ","
      ],
      [
        "면",
        ":"
      ],
      [
        "면",
        "접"
      ],
      [
        "멸",
        "종"
      ],
      [
        "명",
        "령"
      ],
      [
        "명",
        "예"
      ],
      [
        "명",
        "확"
      ],
      [
        "몇",
        "몇"
      ],
      [
        "모",
        "르"
      ],
      [
        "모",
        "없"
      ],
      [
        "모",
        "유"
      ],
      [
        "모",
        "릅니다"
      ],
      [
        "목",
        "요"
      ],
      [
        "몬",
        "드"
      ],
      [
        "몽",
        "구스"
      ],
      [
        "묘",
        "기"
      ],
      [
        "무",
        "료"
      ],
      [
        "무",
        "슨"
      ],
      [
        "무",
        "슬"
      ],
      [
        "무",
        "언"
      ],
      [
        "무",
        "염"
      ],
      [
        "무",
        "정부"
      ],
      [
        "묶",
        "여"
      ],
      [
        "물",
        "리"
      ],
      [
        "물",
        "어"
      ],
      [
        "물",
        "학"
      ],
      [
        "뮬",
        "레이션"
      ],
      [
        "미",
        "디"
      ],
      [
        "미",
        "아"
      ],
      [
        "미",
        "용"
      ],
      [
        "미",
        "니어"
      ],
      [
        "민",
        "족"
      ],
      [
        "민",
        "자'라는"
      ],
      [
        "밀",
        ":"
      ],
      [
        "밀",
        "라"
      ],
      [
        "바",
        "라"
      ],
      [
        "바",
        "른"
      ],
      [
        "바",
        "니아"
      ],
      [
        "반",
        "\""
      ],
      [
        "반",
        "대"
      ],
      [
        "반",
        "도"
      ],
      [
        "반",
        "지"
      ],
      [
        "발",
        "달"
      ],
      [
        "발",
        "점"
      ],
      [
        "발",
        "표"
      ],
      [
        "밤",
        "새"
      ],
      [
        "밤",
        "잠"
      ],
      [
        "방",
        "금"
      ],
      [
        "방",
        "문"
      ],
      [
        "배",
        "열"
      ],
      [
        "배",
        "의"
      ],
      [
        "배",
        "제"
      ],
      [
        "배",
        "트"
      ],
      [
        "백",
        "과"
      ],
      [
        "버",
        "거"
      ],
      [
        "버",
        "그"
      ],
      [
        "버",
        "리"
      ],
      [
        "버",
        "터"
      ],
      [
        "버",
        "트"
      ],
      [
        "번",
        ","
      ],
      [
        "번",
        "호"
      ],
      [
        "벌",
        "레"
      ],
      [
        "법",
        ","
      ],
      [
        "벗",
        "겨졌"
      ],
      [
        "베",
        "르너"
      ],
      [
        "벤",
        "자"
      ],
      [
        "벤",
        "져"
      ],
      [
        "벤",
        "트"
      ],
      [
        "벵",
        "골어"
      ],
      [
        "변",
        "화"
      ],
      [
        "별",
        "명"
      ],
      [
        "보",
        "내"
      ],
      [
        "보",
        "낸"
      ],
      [
        "보",
        "드"
      ],
      [
        "보",
        "석"
      ],
      [
        "보",
        "우"
      ],
      [
        "보",
        "트"
      ],
      [
        "보",
        "헤"
      ],
      [
        "본",
        "의"
      ],
      [
        "부",
        "과"
      ],
      [
        "부",
        "적"
      ],
      [
        "부",
        "츠"
      ],
      [
        "부",
        "호"
      ],
      [
        "부",
        "사항"
      ],
      [
        "북",
        "미의"
      ],
      [
        "북",
        "극의"
      ],
      [
        "분",
        "석"
      ],
      [
        "분",
        "유의"
      ],
      [
        "불",
        "만"
      ],
      [
        "불",
        "편"
      ],
      [
        "불",
        "행"
      ],
      [
        "불",
        "려진"
      ],
      [
        "붙",
        "이"
      ],
      [
        "브",
        "랜드"
      ],
      [
        "브",
        "레멘"
      ],
      [
        "브",
        "리치"
      ],
      [
        "블",
        "레셋"
      ],
      [
        "비",
        "꼬"
      ],
      [
        "비",
        "어"
      ],
      [
        "비",
        "트"
      ],
      [
        "비",
        "평"
      ],
      [
        "비",
        "행"
      ],
      [
        "비",
        "라트"
      ],
      [
        "비",
        "밀:"
      ],
      [
        "빛",
        "나"
      ],
      [
        "빠",
        "른"
      ],
      [
        "빠",
        "릅니다"
      ],
      [
        "쁨",
        "',"
      ],
      [
        "사",
        "가"
      ],
      [
        "사",
        "건"
      ],
      [
        "사",
        "말"
      ],
      [
        "사",
        "망"
      ],
      [
        "사",
        "스"
      ],
      [
        "사",
        "우"
      ],
      [
        "사",
        "울"
      ],
      [
        "사",
        "위"
      ],
      [
        "사",
        "육"
      ],
      [
        "사",
        "자"
      ],
      [
        "사",
        "지"
      ],
      [
        "사",
        "탕"
      ],
      [
        "사",
        "회"
      ],
      [
        "사",
        "라는"
      ],
      [
        "사",
        "각형"
      ],
      [
        "사",
        "랑,"
      ],
      [
        "산",
        "더"
      ],
      [
        "산",
        "음"
      ],
      [
        "산",
        "책"
      ],
      [
        "살",
        "',"
      ],
      [
        "상",
        "\""
      ],
      [
        "상",
        "'"
      ],
      [
        "상",
        "사"
      ],
      [
        "상",
        "위"
      ],
      [
        "상",
        "징"
      ],
      [
        "색",
        "\""
      ],
      [
        "색",
        "상"
      ],
      [
        "생",
        "겼"
      ],
      [
        "생",
        "물학"
      ],
      [
        "서",
        "\""
      ],
      [
        "서",
        "평"
      ],
      [
        "석",
        "방"
      ],
      [
        "선",
        "전"
      ],
      [
        "설",
        "치"
      ],
      [
        "성",
        "공"
      ],
      [
        "성",
        "년"
      ],
      [
        "성",
        "인"
      ],
      [
        "성",
        "장"
      ],
      [
        "성",
        "공의"
      ],
      [
        "세",
        "련"
      ],
      [
        "세",
        "우"
      ],
      [
        "세",
        "일"
      ],
      [
        "세",
        "르비"
      ],
      [
        "세",
        "부사항"
      ],
      [
        "센",
        "치"
      ],
      [
        "셔",
        "츠"
      ],
      [
        "소",
        "드"
      ],
      [
        "소",
        "재"
      ],
      [
        "소",
        "문자"
      ],
      [
        "소",
        "유의"
      ],
      [
        "소",
        "녀의"
      ],
      [
        "소",
        "디\"라는"
      ],
      [
        "속",
        "도의"
      ],
      [
        "쇼",
        "의"
      ],
      [
        "수",
        "동"
      ],
      [
        "수",
        "리"
      ],
      [
        "수",
        "백"
      ],
      [
        "수",
        "상"
      ],
      [
        "수",
        "염"
      ],
      [
        "수",
        "유"
      ],
      [
        "수",
        "확"
      ],
      [
        "수",
        "니파"
      ],
      [
        "수",
        "면,"
      ],
      [
        "숫",
        "자"
      ],
      [
        "쉬",
        "운"
      ],
      [
        "슈",
        "퍼"
      ],
      [
        "스",
        "'"
      ],
      [
        "스",
        "에"
      ],
      [
        "스",
        "웨"
      ],
      [
        "스",
        "쿨"
      ],
      [
        "스",
        "퀴"
      ],
      [
        "스",
        "톱"
      ],
      [
        "스",
        "틱"
      ],
      [
        "스",
        "펙"
      ],
      [
        "스",
        "프레"
      ],
      [
        "스",
        "링크"
      ],
      [
        "스",
        "다코"
      ],
      [
        "스",
        "러워"
      ],
      [
        "스",
        "메트"
      ],
      [
        "슨",
        "의"
      ],
      [
        "슬",
        "퍼"
      ],
      [
        "슬",
        "로건"
      ],
      [
        "시",
        "각"
      ],
      [
        "시",
        "애"
      ],
      [
        "시",
        "어"
      ],
      [
        "시",
        "절"
      ],
      [
        "시",
        "켰"
      ],
      [
        "시",
        "킬"
      ],
      [
        "시",
        "리즈"
      ],
      [
        "시",
        "뮬레이션"
      ],
      [
        "식",
        "물"
      ],
      [
        "식",
        "자'라는"
      ],
      [
        "식",
        "사라는"
      ],
      [
        "신",
        "비"
      ],
      [
        "신",
        "이"
      ],
      [
        "신",
        "탁"
      ],
      [
        "신",
        "화"
      ],
      [
        "신",
        "뢰,"
      ],
      [
        "실",
        "망"
      ],
      [
        "실",
        "수"
      ],
      [
        "실",
        "적"
      ],
      [
        "실",
        "제"
      ],
      [
        "실",
        "행"
      ],
      [
        "심",
        "연"
      ],
      [
        "심",
        "하"
      ],
      [
        "십",
        "니까"
      ],
      [
        "싸",
        "운"
      ],
      [
        "쌀",
        "쌀"
      ],
      [
        "써",
        "서"
      ],
      [
        "써",
        "줄"
      ],
      [
        "쓰",
        "여야"
      ],
      [
        "쓸",
        "모없"
      ],
      [
        "씨",
        "앗"
      ],
      [
        "아",
        "갔"
      ],
      [
        "아",
        "노"
      ],
      [
        "아",
        "담"
      ],
      [
        "아",
        "서"
      ],
      [
        "아",
        "주"
      ],
      [
        "아",
        "줘"
      ],
      [
        "아",
        "카"
      ],
      [
        "아",
        "쿠"
      ],
      [
        "아",
        "해"
      ],
      [
        "아",
        "홉"
      ],
      [
        "아",
        "닙니다"
      ],
      [
        "아",
        "라브"
      ],
      [
        "아",
        "리움"
      ],
      [
        "아",
        "몬드"
      ],
      [
        "악",
        "당"
      ],
      [
        "안",
        "녕"
      ],
      [
        "안",
        "일"
      ],
      [
        "안",
        "토"
      ],
      [
        "안",
        "됩니다"
      ],
      [
        "안",
        "락의자"
      ],
      [
        "안",
        "서\""
      ],
      [
        "알",
        "리"
      ],
      [
        "알",
        "루미"
      ],
      [
        "알",
        "바니아"
      ],
      [
        "애",
        "도"
      ],
      [
        "앨",
        "범"
      ],
      [
        "앱",
        "입니다"
      ],
      [
        "야",
        "간"
      ],
      [
        "야",
        "옹"
      ],
      [
        "약",
        "속"
      ],
      [
        "약",
        "혼"
      ],
      [
        "양",
        "귀비"
      ],
      [
        "어",
        ","
      ],
      [
        "어",
        ":"
      ],
      [
        "어",
        "낸"
      ],
      [
        "어",
        "라"
      ],
      [
        "어",
        "만"
      ],
      [
        "어",
        "오"
      ],
      [
        "어",
        "제"
      ],
      [
        "어",
        "졌"
      ],
      [
        "어",
        "줄"
      ],
      [
        "어",
        "진"
      ],
      [
        "어",
        "쿠"
      ],
      [
        "어",
        "필"
      ],
      [
        "어",
        "라는"
      ],
      [
        "어",
        "워드"
      ],
      [
        "어",
        "디인가요"
      ],
      [
        "어",
        "딘가"
      ],
      [
        "어",
        "떠신"
      ],
      [
        "어",
        "려움"
      ],
      [
        "어",
        "리석"
      ],
      [
        "어",
        "벤져"
      ],
      [
        "엄",
        "버트"
      ],
      [
        "업",
        "계"
      ],
      [
        "업",
        "무"
      ],
      [
        "업",
        "데이"
      ],
      [
        "에",
        "와"
      ],
      [
        "에",
        "이"
      ],
      [
        "에",
        "코"
      ],
      [
        "에",
        "피"
      ],
      [
        "여",
        "름"
      ],
      [
        "여",
        "부입니다"
      ],
      [
        "역",
        "할"
      ],
      [
        "역",
        "함"
      ],
      [
        "역",
        "겨움"
      ],
      [
        "연",
        "결"
      ],
      [
        "연",
        "관"
      ],
      [
        "연",
        "기"
      ],
      [
        "연",
        "도"
      ],
      [
        "연",
        "령"
      ],
      [
        "연",
        "례"
      ],
      [
        "연",
        "설"
      ],
      [
        "연",
        "히"
      ],
      [
        "염",
        "색"
      ],
      [
        "예",
        "멘"
      ],
      [
        "예",
        "쁜"
      ],
      [
        "예",
        "약"
      ],
      [
        "예",
        "측"
      ],
      [
        "오",
        "'"
      ],
      [
        "오",
        ":"
      ],
      [
        "오",
        "래"
      ],
      [
        "오",
        "르"
      ],
      [
        "오",
        "염"
      ],
      [
        "오",
        "프"
      ],
      [
        "오",
        "스트"
      ],
      [
        "올",
        "바른"
      ],
      [
        "와",
        "이"
      ],
      [
        "완",
        "벽"
      ],
      [
        "완",
        "전"
      ],
      [
        "왕",
        "의"
      ],
      [
        "외",
        "로운"
      ],
      [
        "요",
        "\""
      ],
      [
        "요",
        ","
      ],
      [
        "요",
        ":"
      ],
      [
        "요",
        "구"
      ],
      [
        "요",
        "소의"
      ],
      [
        "요",
        "리,"
      ],
      [
        "용",
        "',"
      ],
      [
        "우",
        "정"
      ],
      [
        "우",
        "주"
      ],
      [
        "우",
        "르두어로"
      ],
      [
        "운",
        "가요"
      ],
      [
        "운",
        "동복"
      ],
      [
        "워",
        "즈"
      ],
      [
        "원",
        "료"
      ],
      [
        "원",
        "해"
      ],
      [
        "원",
        "한다"
      ],
      [
        "원",
        "스톱"
      ],
      [
        "위",
        "기"
      ],
      [
        "위",
        "키"
      ],
      [
        "유",
        "럽"
      ],
      [
        "유",
        "명"
      ],
      [
        "유",
        "익"
      ],
      [
        "유",
        "일"
      ],
      [
        "유",
        "지"
      ],
      [
        "유",
        "칼"
      ],
      [
        "으",
        "키"
      ],
      [
        "으",
        "십시오"
      ],
      [
        "으",
        "세요:"
      ],
      [
        "으",
        "라고"
      ],
      [
        "으",
        "려고"
      ],
      [
        "은",
        ":"
      ],
      [
        "은",
        "\","
      ],
      [
        "을",
        "지"
      ],
      [
        "음",
        "반"
      ],
      [
        "음",
        "의"
      ],
      [
        "의",
        "\""
      ],
      [
        "의",
        "류"
      ],
      [
        "이",
        "걸"
      ],
      [
        "이",
        "나"
      ],
      [
        "이",
        "내"
      ],
      [
        "이",
        "란"
      ],
      [
        "이",
        "브"
      ],
      [
        "이",
        "정"
      ],
      [
        "이",
        "직"
      ],
      [
        "이",
        "커"
      ],
      [
        "이",
        "탄"
      ],
      [
        "이",
        "틀"
      ],
      [
        "이",
        "혼"
      ],
      [
        "이",
        "라는"
      ],
      [
        "이",
        "입니다"
      ],
      [
        "이",
        "다인"
      ],
      [
        "이",
        "벤트"
      ],
      [
        "익",
        "명"
      ],
      [
        "인",
        "기"
      ],
      [
        "인",
        "도"
      ],
      [
        "인",
        "상"
      ],
      [
        "인",
        "쇄"
      ],
      [
        "인",
        "의"
      ],
      [
        "인",
        "자"
      ],
      [
        "인",
        "테"
      ],
      [
        "인",
        "사말"
      ],
      [
        "일",
        "기"
      ],
      [
        "일",
        "상"
      ],
      [
        "일",
        "대일"
      ],
      [
        "일",
        "으키"
      ],
      [
        "입",
        "증"
      ],
      [
        "잉",
        "여"
      ],
      [
        "자",
        "극"
      ],
      [
        "자",
        "금"
      ],
      [
        "자",
        "랄"
      ],
      [
        "자",
        "랑"
      ],
      [
        "자",
        "자"
      ],
      [
        "자",
        "전"
      ],
      [
        "자",
        "비어"
      ],
      [
        "작",
        "가"
      ],
      [
        "작",
        "년"
      ],
      [
        "작",
        "년의"
      ],
      [
        "잠",
        "재"
      ],
      [
        "잡",
        "지"
      ],
      [
        "장",
        "면"
      ],
      [
        "장",
        "소"
      ],
      [
        "장",
        "점"
      ],
      [
        "장",
        "치"
      ],
      [
        "장",
        "미의"
      ],
      [
        "재",
        "료"
      ],
      [
        "재",
        "창"
      ],
      [
        "재",
        "림교와"
      ],
      [
        "저",
        "작"
      ],
      [
        "저",
        "장"
      ],
      [
        "적",
        "합"
      ],
      [
        "전",
        "시"
      ],
      [
        "전",
        "혀"
      ],
      [
        "전",
        "부입니다"
      ],
      [
        "절",
        "대"
      ],
      [
        "젊",
        "음의"
      ],
      [
        "정",
        "당"
      ],
      [
        "정",
        "리"
      ],
      [
        "정",
        "말"
      ],
      [
        "정",
        "원"
      ],
      [
        "정",
        "체"
      ],
      [
        "제",
        "]"
      ],
      [
        "제",
        "국"
      ],
      [
        "제",
        "기"
      ],
      [
        "제",
        "도"
      ],
      [
        "제",
        "한"
      ],
      [
        "제",
        "54"
      ],
      [
        "제",
        "작자"
      ],
      [
        "제",
        "2차"
      ],
      [
        "제",
        "니퍼"
      ],
      [
        "젤",
        "리"
      ],
      [
        "조",
        "금"
      ],
      [
        "조",
        "던"
      ],
      [
        "조",
        "정"
      ],
      [
        "조",
        "직"
      ],
      [
        "조",
        "타"
      ],
      [
        "조",
        "']"
      ],
      [
        "조",
        "교수"
      ],
      [
        "존",
        "스"
      ],
      [
        "종",
        "의"
      ],
      [
        "종",
        "이입니다"
      ],
      [
        "죠",
        "\"라는"
      ],
      [
        "주",
        "먹"
      ],
      [
        "주",
        "위"
      ],
      [
        "주",
        "인"
      ],
      [
        "주",
        "장"
      ],
      [
        "주",
        "니어"
      ],
      [
        "주",
        "십시오:"
      ],
      [
        "주",
        "의자"
      ],
      [
        "주",
        "머니"
      ],
      [
        "주",
        "사위"
      ],
      [
        "주",
        "어진"
      ],
      [
        "줄",
        "의"
      ],
      [
        "줍",
        "니다"
      ],
      [
        "중",
        "력"
      ],
      [
        "중",
        "세"
      ],
      [
        "중",
        "점"
      ],
      [
        "중",
        ">>"
      ],
      [
        "즐",
        "기"
      ],
      [
        "즐",
        "길"
      ],
      [
        "증",
        "오"
      ],
      [
        "지",
        ","
      ],
      [
        "지",
        "난"
      ],
      [
        "지",
        "능"
      ],
      [
        "지",
        "면"
      ],
      [
        "지",
        "문"
      ],
      [
        "지",
        "불"
      ],
      [
        "지",
        "속"
      ],
      [
        "지",
        "출"
      ],
      [
        "지",
        "메네즈"
      ],
      [
        "직",
        "위"
      ],
      [
        "진",
        "술"
      ],
      [
        "진",
        "지"
      ],
      [
        "진",
        "짜"
      ],
      [
        "진",
        "행"
      ],
      [
        "질",
        "투"
      ],
      [
        "질",
        "환"
      ],
      [
        "집",
        "자"
      ],
      [
        "집",
        "회"
      ],
      [
        "집",
        "안일"
      ],
      [
        "집",
        "중력"
      ],
      [
        "쫓",
        "기"
      ],
      [
        "쫓",
        "아갔"
      ],
      [
        "차",
        "이"
      ],
      [
        "착",
        "륙"
      ],
      [
        "창",
        "출"
      ],
      [
        "창",
        "작자"
      ],
      [
        "채",
        "소"
      ],
      [
        "채",
        "스터"
      ],
      [
        "청",
        "소년의"
      ],
      [
        "체",
        "스"
      ],
      [
        "체",
        "코"
      ],
      [
        "체",
        "포"
      ],
      [
        "초",
        "래"
      ],
      [
        "초",
        "록"
      ],
      [
        "초",
        "안"
      ],
      [
        "초",
        "의"
      ],
      [
        "초",
        "점"
      ],
      [
        "초",
        "능력"
      ],
      [
        "초",
        "등학교"
      ],
      [
        "초",
        "자연"
      ],
      [
        "초",
        "등학생"
      ],
      [
        "촉",
        "구"
      ],
      [
        "촌",
        "'"
      ],
      [
        "최",
        "근"
      ],
      [
        "최",
        "초의"
      ],
      [
        "추",
        "정"
      ],
      [
        "추",
        "운가요"
      ],
      [
        "출",
        "근"
      ],
      [
        "출",
        "산"
      ],
      [
        "출",
        "시"
      ],
      [
        "출",
        "발점"
      ],
      [
        "치",
        "즈"
      ],
      [
        "치",
        "라인"
      ],
      [
        "치",
        "료제"
      ],
      [
        "친",
        "한"
      ],
      [
        "침",
        "해"
      ],
      [
        "침",
        "례교의"
      ],
      [
        "카",
        "츄"
      ],
      [
        "카",
        "툰"
      ],
      [
        "카",
        "페"
      ],
      [
        "카",
        "푸"
      ],
      [
        "카",
        "리나"
      ],
      [
        "카",
        "밀라"
      ],
      [
        "캥",
        "거루"
      ],
      [
        "커",
        "\""
      ],
      [
        "커",
        "플"
      ],
      [
        "컬",
        "렉션"
      ],
      [
        "케",
        "터"
      ],
      [
        "케",
        "돈의"
      ],
      [
        "코",
        "기"
      ],
      [
        "코",
        "끼리라는"
      ],
      [
        "코",
        "미디"
      ],
      [
        "콘",
        "텐"
      ],
      [
        "콧",
        "수염"
      ],
      [
        "퀘",
        "이커"
      ],
      [
        "퀴",
        "어"
      ],
      [
        "퀴",
        "즈"
      ],
      [
        "크",
        "\""
      ],
      [
        "크",
        "기"
      ],
      [
        "크",
        "의"
      ],
      [
        "크",
        "\"라는"
      ],
      [
        "크",
        "레이"
      ],
      [
        "크",
        "로아티"
      ],
      [
        "큰",
        "가"
      ],
      [
        "클",
        "까요"
      ],
      [
        "키",
        "로"
      ],
      [
        "타",
        "원"
      ],
      [
        "타",
        "임"
      ],
      [
        "타",
        "오르"
      ],
      [
        "타",
        "이탄"
      ],
      [
        "탄",
        "\""
      ],
      [
        "탄",
        "산음"
      ],
      [
        "태",
        "국어"
      ],
      [
        "태",
        "그라인"
      ],
      [
        "택",
        "\""
      ],
      [
        "터",
        "슨의"
      ],
      [
        "턴",
        "스에"
      ],
      [
        "토",
        "랑"
      ],
      [
        "토",
        "마토"
      ],
      [
        "톤",
        "의"
      ],
      [
        "통",
        "합"
      ],
      [
        "투",
        "갈어"
      ],
      [
        "투",
        "자자"
      ],
      [
        "트",
        ":"
      ],
      [
        "트",
        "셔츠"
      ],
      [
        "특",
        "이"
      ],
      [
        "특",
        "정"
      ],
      [
        "특",
        "징"
      ],
      [
        "틀",
        "란티"
      ],
      [
        "틱",
        "(```"
      ],
      [
        "팀",
        "입니다"
      ],
      [
        "파",
        "리"
      ],
      [
        "파",
        "크의"
      ],
      [
        "패",
        "션"
      ],
      [
        "퍼",
        "지"
      ],
      [
        "퍼",
        "센트"
      ],
      [
        "펀",
        "자비어"
      ],
      [
        "펀",
        "치라인"
      ],
      [
        "페",
        "더러"
      ],
      [
        "편",
        "리"
      ],
      [
        "편",
        "집자"
      ],
      [
        "폐",
        "기물"
      ],
      [
        "포",
        "드"
      ],
      [
        "포",
        "럼"
      ],
      [
        "포",
        "맷"
      ],
      [
        "포",
        "장"
      ],
      [
        "포",
        "토"
      ],
      [
        "포",
        "스터"
      ],
      [
        "폭",
        "넓"
      ],
      [
        "폭",
        "풍"
      ],
      [
        "표",
        "현"
      ],
      [
        "표",
        "',"
      ],
      [
        "표",
        "본의"
      ],
      [
        "푸",
        "들"
      ],
      [
        "풍",
        "선"
      ],
      [
        "프",
        "로그"
      ],
      [
        "프",
        "랭클"
      ],
      [
        "프",
        "턴스에"
      ],
      [
        "플",
        "랫폼"
      ],
      [
        "픔",
        "',"
      ],
      [
        "피",
        "해"
      ],
      [
        "피",
        "아노"
      ],
      [
        "피",
        "카츄"
      ],
      [
        "피",
        "터슨의"
      ],
      [
        "하",
        "중"
      ],
      [
        "하",
        "향"
      ],
      [
        "하",
        "드웨어"
      ],
      [
        "하",
        "와이"
      ],
      [
        "학",
        "습"
      ],
      [
        "한",
        ","
      ],
      [
        "한",
        "국어"
      ],
      [
        "한",
        "반도"
      ],
      [
        "할",
        "인"
      ],
      [
        "할",
        "까요"
      ],
      [
        "해",
        "결"
      ],
      [
        "해",
        "냈"
      ],
      [
        "해",
        "먹"
      ],
      [
        "해",
        "변"
      ],
      [
        "해",
        "선"
      ],
      [
        "해",
        "외"
      ],
      [
        "해",
        "의"
      ],
      [
        "해",
        "리라는"
      ],
      [
        "핵",
        "심"
      ],
      [
        "햄",
        "버거"
      ],
      [
        "햄",
        "프턴스에"
      ],
      [
        "했",
        "으며,"
      ],
      [
        "행",
        "사"
      ],
      [
        "향",
        "이"
      ],
      [
        "허",
        "구의"
      ],
      [
        "헌",
        "법"
      ],
      [
        "헤",
        "럴드"
      ],
      [
        "헬",
        "싱"
      ],
      [
        "혁",
        "명"
      ],
      [
        "혁",
        "신"
      ],
      [
        "혐",
        "의"
      ],
      [
        "형",
        "제"
      ],
      [
        "호",
        "주"
      ],
      [
        "호",
        "기심"
      ],
      [
        "화",
        "려"
      ],
      [
        "화",
        "',"
      ],
      [
        "확",
        "보"
      ],
      [
        "확",
        "실"
      ],
      [
        "확",
        "연히"
      ],
      [
        "환",
        "불"
      ],
      [
        "효",
        "과"
      ],
      [
        "훔",
        "친"
      ],
      [
        "훼",
        "손"
      ],
      [
        "휘",
        "장"
      ],
      [
        "휴",
        "가"
      ],
      [
        "흉",
        "상\""
      ],
      [
        "흰",
        "색"
      ],
      [
        "히",
        "도라"
      ],
      [
        "힘",
        "든지"
      ],
      [
        "세요",
        "):"
      ],
      [
        "세요",
        "*)."
      ],
      [
        "응답",
        "(추"
      ],
      [
        "으로",
        "부터"
      ],
      [
        "답변",
        ")"
      ],
      [
        "십시오",
        "(100단어"
      ],
      [
        "입니다",
        "*"
      ],
      [
        "입니다",
        "인"
      ],
      [
        "입니다",
        "*."
      ],
      [
        "기호",
        ","
      ],
      [
        "기호",
        ":"
      ],
      [
        "에서",
        ","
      ],
      [
        "에서",
        "의"
      ],
      [
        "섹션",
        "(섹션"
      ],
      [
        "섹션",
        "입니다*."
      ],
      [
        "습니다",
        ")"
      ],
      [
        "습니다",
        "*"
      ],
      [
        "습니다",
        ","
      ],
      [
        "형식",
        "입니다"
      ],
      [
        "문장",
        "의"
      ],
      [
        "나요",
        ":"
      ],
      [
        "다른",
        "지,"
      ],
      [
        "다운",
        "로드"
      ],
      [
        "스트",
        ","
      ],
      [
        "강조",
        "/굵"
      ],
      [
        "마세요",
        ")"
      ],
      [
        "마세요",
        ";"
      ],
      [
        "제목",
        "의"
      ],
      [
        "요청",
        ":"
      ],
      [
        "요청",
        "받"
      ],
      [
        "****",
        "***"
      ],
      [
        "00",
        "원"
      ],
      [
        ".\"",
        "라는"
      ],
      [
        "대답",
        ">>"
      ],
      [
        "사람",
        "의"
      ],
      [
        "이름",
        "*"
      ],
      [
        "이름",
        "인가요"
      ],
      [
        "이름",
        ">>"
      ],
      [
        "이상",
        ","
      ],
      [
        "하나",
        "인가요"
      ],
      [
        "재미",
        "없"
      ],
      [
        "대해",
        ","
      ],
      [
        "설명",
        ","
      ],
      [
        "설명",
        "도"
      ],
      [
        "설명",
        "인가"
      ],
      [
        "텍스트",
        "의"
      ],
      [
        "텍스트",
        "*."
      ],
      [
        "텍스트",
        "입니다*"
      ],
      [
        "제공",
        "량"
      ],
      [
        "<<",
        "내"
      ],
      [
        "<<",
        "당신"
      ],
      [
        "<<",
        "수수께끼"
      ],
      [
        "<<",
        "..."
      ],
      [
        "<<",
        "SRE"
      ],
      [
        "<<",
        "슬루프"
      ],
      [
        "<<",
        "코틀린"
      ],
      [
        "<<",
        "xy"
      ],
      [
        "<<",
        "이름>>"
      ],
      [
        ">>",
        "입니다"
      ],
      [
        "위해",
        ","
      ],
      [
        "위해",
        "서"
      ],
      [
        "\"제",
        "안서\""
      ],
      [
        "무엇",
        "인가"
      ],
      [
        "10",
        ","
      ],
      [
        "10",
        "개"
      ],
      [
        "10",
        "번"
      ],
      [
        "10",
        "세"
      ],
      [
        "10",
        "일"
      ],
      [
        "10",
        "가지"
      ],
      [
        "10",
        "명의"
      ],
      [
        "별표",
        "(******)"
      ],
      [
        "스타",
        "워즈"
      ],
      [
        "스타",
        "포드"
      ],
      [
        "광고",
        "의"
      ],
      [
        "광고",
        "주"
      ],
      [
        "무엇인가요",
        ":"
      ],
      [
        "먼저",
        ","
      ],
      [
        "포스트",
        ">>"
      ],
      [
        "마십시오",
        ":"
      ],
      [
        "문구",
        "인"
      ],
      [
        "요약",
        ","
      ],
      [
        "이하",
        "의"
      ],
      [
        "이하",
        "(단"
      ],
      [
        "이야기",
        ">>입니다"
      ],
      [
        "제품",
        ","
      ],
      [
        "제품",
        "의"
      ],
      [
        "수수께끼",
        "의"
      ],
      [
        "는지",
        "입니다"
      ],
      [
        "20",
        "세"
      ],
      [
        "20",
        "일"
      ],
      [
        "20",
        "인가"
      ],
      [
        "20",
        "명의"
      ],
      [
        "써라",
        ","
      ],
      [
        "여행",
        "자"
      ],
      [
        "그리",
        "운"
      ],
      [
        "버전",
        "의"
      ],
      [
        "부분",
        "의"
      ],
      [
        "회사",
        "입니다"
      ],
      [
        "미만",
        ")"
      ],
      [
        "미만",
        "(5문장"
      ],
      [
        "남자",
        "의"
      ],
      [
        "목록",
        "의"
      ],
      [
        "아이",
        "디어"
      ],
      [
        "아이",
        "스링크"
      ],
      [
        "엄마",
        "인"
      ],
      [
        "라인",
        "인"
      ],
      [
        "없이",
        ","
      ],
      [
        "편지",
        "의"
      ],
      [
        "50",
        "문장"
      ],
      [
        "50",
        "년대"
      ],
      [
        "[주",
        "제]"
      ],
      [
        "en",
        "a"
      ],
      [
        "en",
        ".wik"
      ],
      [
        "그녀",
        "의"
      ],
      [
        "프로",
        "듀서"
      ],
      [
        "프로",
        "스펙"
      ],
      [
        "...",
        "?"
      ],
      [
        "...",
        ".\""
      ],
      [
        "스타트업",
        "입니다"
      ],
      [
        "대통령",
        "인"
      ],
      [
        "*이탤릭",
        "*"
      ],
      [
        "ch",
        "lau"
      ],
      [
        "구문",
        "*."
      ],
      [
        "내용",
        "의"
      ],
      [
        "습니까",
        ":"
      ],
      [
        "친구",
        "였"
      ],
      [
        "페이",
        "지의"
      ],
      [
        "하이",
        "랄,"
      ],
      [
        "기울임",
        "꼴"
      ],
      [
        "30",
        ","
      ],
      [
        "30",
        "단어"
      ],
      [
        "30",
        "줄의"
      ],
      [
        "꺾쇠",
        "괄호"
      ],
      [
        "다양",
        "성의"
      ],
      [
        "드시",
        "트"
      ],
      [
        "배우",
        "의"
      ],
      [
        "배우",
        "라고"
      ],
      [
        "시간",
        "표"
      ],
      [
        "이션",
        "의"
      ],
      [
        "직장",
        "인"
      ],
      [
        "을까요",
        ","
      ],
      [
        "19",
        "56"
      ],
      [
        "19",
        "50년대"
      ],
      [
        "고객",
        ","
      ],
      [
        "과학",
        "임"
      ],
      [
        "과학",
        "자"
      ],
      [
        "그런",
        "지"
      ],
      [
        "데이",
        "팅"
      ],
      [
        "따라",
        "야"
      ],
      [
        "따라",
        "오"
      ],
      [
        "사이",
        "여야"
      ],
      [
        "신문",
        "의"
      ],
      [
        "영화",
        "의"
      ],
      [
        "오늘",
        ","
      ],
      [
        "일어",
        "났"
      ],
      [
        "주세요",
        "\""
      ],
      [
        "주세요",
        ")"
      ],
      [
        "형태",
        "론"
      ],
      [
        "000",
        "원"
      ],
      [
        "?\"",
        "여야"
      ],
      [
        "Co",
        "unt"
      ],
      [
        "an",
        "ne"
      ],
      [
        "hen",
        "g"
      ],
      [
        "le",
        ","
      ],
      [
        "or",
        "]"
      ],
      [
        "or",
        "e"
      ],
      [
        "or",
        "ks"
      ],
      [
        "th",
        "on"
      ],
      [
        "th",
        "or]"
      ],
      [
        "경험",
        "*."
      ],
      [
        "기능",
        "입니다"
      ],
      [
        "대화",
        "체"
      ],
      [
        "레스",
        "토랑"
      ],
      [
        "미디어",
        "의"
      ],
      [
        "보여",
        "줍니다"
      ],
      [
        "수업",
        "/강의"
      ],
      [
        "아름",
        "다운"
      ],
      [
        "애완",
        "견"
      ],
      [
        "이루어",
        "져"
      ],
      [
        "이루어",
        "진"
      ],
      [
        "자신",
        "의"
      ],
      [
        "커피",
        "숍"
      ],
      [
        "커피",
        "의"
      ],
      [
        "프레",
        "임"
      ],
      [
        "페이지",
        "여야"
      ],
      [
        "'나",
        "누"
      ],
      [
        "'나",
        "머지"
      ],
      [
        "40",
        "단어"
      ],
      [
        "40",
        "문장"
      ],
      [
        "AP",
        "A"
      ],
      [
        "AP",
        "I의"
      ],
      [
        "av",
        "cic"
      ],
      [
        "ay",
        "er"
      ],
      [
        "ay",
        "mon"
      ],
      [
        "ic",
        "a'의"
      ],
      [
        "pp",
        "y"
      ],
      [
        "ser",
        ","
      ],
      [
        "개발",
        "자"
      ],
      [
        "개발",
        "도상"
      ],
      [
        "관심",
        "사"
      ],
      [
        "그래",
        "미"
      ],
      [
        "껍질",
        "*."
      ],
      [
        "다면",
        ","
      ],
      [
        "들어",
        "가"
      ],
      [
        "들어",
        "간"
      ],
      [
        "들어",
        "갈"
      ],
      [
        "려면",
        ","
      ],
      [
        "미터",
        "입니다"
      ],
      [
        "분야",
        "의"
      ],
      [
        "설득",
        "력"
      ],
      [
        "스티",
        "브"
      ],
      [
        "시대",
        "'라는"
      ],
      [
        "애플",
        "리케"
      ],
      [
        "인터",
        "페이스"
      ],
      [
        "자바",
        "의"
      ],
      [
        "자바",
        ">>"
      ],
      [
        "자인",
        ":"
      ],
      [
        "전화",
        "의"
      ],
      [
        "취약",
        "성의"
      ],
      [
        "툴사",
        "에"
      ],
      [
        "툴사",
        "의"
      ],
      [
        "평화",
        "라는"
      ],
      [
        "학자",
        "',"
      ],
      [
        "함께",
        "라면"
      ],
      [
        "향수",
        ","
      ],
      [
        "향수",
        "입니다"
      ],
      [
        "현재",
        "의"
      ],
      [
        "환경",
        ","
      ],
      [
        "훈련",
        "사가"
      ],
      [
        "전문가",
        "입니다"
      ],
      [
        "마법사",
        "였"
      ],
      [
        "\"열쇠",
        "\""
      ],
      [
        "Google",
        ","
      ],
      [
        "[이름]",
        ","
      ],
      [
        "기저귀",
        "의"
      ],
      [
        "기저귀",
        "입니다"
      ],
      [
        "\"버",
        "그"
      ],
      [
        "\"버",
        "스"
      ],
      [
        "\"수",
        "염"
      ],
      [
        "\"수",
        "요\""
      ],
      [
        "\"죽",
        "이"
      ],
      [
        "\"회사",
        "\"라는"
      ],
      [
        "'강",
        "'"
      ],
      [
        "'강",
        "도'라는"
      ],
      [
        "'죽",
        "이"
      ],
      [
        "13",
        "개"
      ],
      [
        "13",
        "문장"
      ],
      [
        "15",
        "센치"
      ],
      [
        "15",
        "000원"
      ],
      [
        "28",
        "초"
      ],
      [
        "32",
        "마리의"
      ],
      [
        "32",
        "그램"
      ],
      [
        "54",
        "000원인"
      ],
      [
        "60",
        "문장"
      ],
      [
        "600",
        "자"
      ],
      [
        "App",
        "le,"
      ],
      [
        "ECB",
        "의"
      ],
      [
        "Jav",
        "a"
      ],
      [
        "Jav",
        "a라는"
      ],
      [
        "UTC",
        "+00"
      ],
      [
        "con",
        "tent"
      ],
      [
        "ip",
        "edi"
      ],
      [
        "ip",
        "oli\"의"
      ],
      [
        "of",
        "t,"
      ],
      [
        "격투",
        "*."
      ],
      [
        "높이",
        "였"
      ],
      [
        "대중",
        "교통"
      ],
      [
        "돌려",
        "받"
      ],
      [
        "돌려",
        "주"
      ],
      [
        "동의",
        "어라는"
      ],
      [
        "레이",
        "튼"
      ],
      [
        "로드",
        "니라는"
      ],
      [
        "리터",
        "당"
      ],
      [
        "리터",
        "의"
      ],
      [
        "링크",
        ","
      ],
      [
        "마천",
        "루"
      ],
      [
        "벼룩",
        "시장"
      ],
      [
        "부부",
        "의"
      ],
      [
        "사고",
        "팔"
      ],
      [
        "샌드위치",
        "인가요"
      ],
      [
        "생명",
        "공학"
      ],
      [
        "선수",
        "인가요"
      ],
      [
        "소설",
        "가의"
      ],
      [
        "수정",
        "헌법"
      ],
      [
        "시아",
        "파"
      ],
      [
        "신발",
        "의"
      ],
      [
        "싸움",
        ","
      ],
      [
        "아티",
        "스트,"
      ],
      [
        "알렉",
        "스"
      ],
      [
        "알렉",
        "산더"
      ],
      [
        "워크",
        "숍"
      ],
      [
        "음악",
        "가,"
      ],
      [
        "인공",
        "지능"
      ],
      [
        "인용",
        "구"
      ],
      [
        "인용",
        "부호"
      ],
      [
        "장애",
        "의"
      ],
      [
        "장애",
        "인의"
      ],
      [
        "적입니까",
        ","
      ],
      [
        "정책",
        ","
      ],
      [
        "제외",
        ")"
      ],
      [
        "젤다",
        ","
      ],
      [
        "종류",
        "의"
      ],
      [
        "축제",
        "라는"
      ],
      [
        "충분",
        "히"
      ],
      [
        "칸나다",
        "어로"
      ],
      [
        "칸나다",
        "어만"
      ],
      [
        "포르",
        "노그래픽"
      ],
      [
        "포르",
        "투갈어"
      ],
      [
        "항목",
        "의"
      ],
      [
        "허드",
        "의"
      ],
      [
        "202",
        "2"
      ],
      [
        "202",
        "3년의"
      ],
      [
        "기울여",
        "서"
      ],
      [
        "페이스",
        "북"
      ],
      [
        "1-48",
        "67"
      ],
      [
        "[username",
        "1]"
      ],
      [
        "[username",
        "2]"
      ],
      [
        "구자라",
        "티"
      ],
      [
        "구자라",
        "티어"
      ],
      [
        "디자이너",
        "의"
      ],
      [
        "라디오파",
        "의"
      ],
      [
        "마케팅",
        ","
      ],
      [
        "바이든",
        "의"
      ],
      [
        "박테리아",
        "의"
      ],
      [
        "비즈니스",
        "인"
      ],
      [
        "\"6",
        "31-48"
      ],
      [
        "\"B",
        "ril"
      ],
      [
        "\"N",
        "hi"
      ],
      [
        "\"h",
        "tt"
      ],
      [
        "\"s",
        "chlau"
      ],
      [
        "\"가",
        "볍"
      ],
      [
        "\"결",
        "론\""
      ],
      [
        "\"공",
        "급\""
      ],
      [
        "\"그",
        "게"
      ],
      [
        "\"노",
        "크\"라는"
      ],
      [
        "\"녹",
        "색\""
      ],
      [
        "\"농",
        "부\"라는"
      ],
      [
        "\"랩",
        "소디\"라는"
      ],
      [
        "\"무",
        "대"
      ],
      [
        "\"발",
        "견"
      ],
      [
        "\"방",
        "\","
      ],
      [
        "\"법",
        "\","
      ],
      [
        "\"별",
        "명\""
      ],
      [
        "\"살",
        "인자"
      ],
      [
        "\"숲",
        "\""
      ],
      [
        "\"싱",
        "글\"라는"
      ],
      [
        "\"앱",
        "의"
      ],
      [
        "\"에",
        "너지"
      ],
      [
        "\"옳",
        "다\"라는"
      ],
      [
        "\"우",
        "연"
      ],
      [
        "\"운",
        "반\""
      ],
      [
        "\"잉",
        "크\""
      ],
      [
        "\"접",
        "근\","
      ],
      [
        "\"채",
        "택\""
      ],
      [
        "\"체",
        "조"
      ],
      [
        "\"폭",
        "탄\""
      ],
      [
        "\"피",
        "부\"라는"
      ],
      [
        "\"혁",
        "명\""
      ],
      [
        "\"홈",
        "스쿨"
      ],
      [
        "\"회",
        "고록"
      ],
      [
        "\"사용",
        "\","
      ],
      [
        "\"요약",
        "\""
      ],
      [
        "\"이야기",
        "\","
      ],
      [
        "\"수수께끼",
        "\"라는"
      ],
      [
        "\"그리",
        "드\"라는"
      ],
      [
        "\"대통령",
        "\""
      ],
      [
        "\"시간",
        "\""
      ],
      [
        "\"프로젝트",
        "\"라는"
      ],
      [
        "\"고양이",
        "\"라는"
      ],
      [
        "\"결과",
        "\","
      ],
      [
        "\"경제",
        "\","
      ],
      [
        "\"세금",
        "\""
      ],
      [
        "\"파일",
        "\","
      ],
      [
        "\"계산",
        "\","
      ],
      [
        "\"관계",
        "\""
      ],
      [
        "\"기후",
        "\","
      ],
      [
        "\"사진",
        "\""
      ],
      [
        "\"정류장",
        "\""
      ],
      [
        "\"취약점",
        "\""
      ],
      [
        "\"아르헨티나",
        "\"라는"
      ],
      [
        "'B",
        "C',"
      ],
      [
        "'답",
        "'"
      ],
      [
        "'도",
        "살',"
      ],
      [
        "'문",
        "화',"
      ],
      [
        "'보",
        "상'"
      ],
      [
        "'비",
        "용',"
      ],
      [
        "'사",
        "촌'"
      ],
      [
        "'슬",
        "픔',"
      ],
      [
        "'아",
        "틀란티"
      ],
      [
        "'예",
        "'"
      ],
      [
        "'위",
        "르겐'"
      ],
      [
        "'이",
        "민자'라는"
      ],
      [
        "'저",
        "조']"
      ],
      [
        "'점",
        "령',"
      ],
      [
        "'지",
        "표',"
      ],
      [
        "'타",
        "다'"
      ],
      [
        "'포",
        "식자'라는"
      ],
      [
        "'하",
        "루']"
      ],
      [
        "'JSON",
        "'"
      ],
      [
        "'일정",
        "'"
      ],
      [
        "'ar",
        "s"
      ],
      [
        "'가능",
        "'"
      ],
      [
        "'대학",
        "'"
      ],
      [
        "'경제",
        "학자',"
      ],
      [
        "'관리",
        "'라는"
      ],
      [
        "'목표",
        "'"
      ],
      [
        "'스트레스",
        "'"
      ],
      [
        "'경찰",
        "관'"
      ],
      [
        "'미친",
        "',"
      ],
      [
        "'벼룩",
        "'"
      ],
      [
        "'선사",
        "시대'라는"
      ],
      [
        "'익사",
        "'라는"
      ],
      [
        "'축제",
        "'"
      ],
      [
        "'침략",
        "'"
      ],
      [
        "'패러디",
        "'라는"
      ],
      [
        "(1",
        ")"
      ],
      [
        "(3",
        ")"
      ],
      [
        "(노",
        "트:"
      ],
      [
        "(인",
        "접"
      ],
      [
        "(기울",
        "이"
      ],
      [
        "*표시",
        "*해"
      ],
      [
        "*마크다운",
        "*"
      ],
      [
        "*쉼표",
        "*"
      ],
      [
        "*적어도",
        "*"
      ],
      [
        "*기울여",
        "*"
      ],
      [
        "1+1",
        "=3"
      ],
      [
        "2문장",
        ")여야"
      ],
      [
        "250",
        "개"
      ],
      [
        "36",
        "000원인"
      ],
      [
        "39",
        "6칼"
      ],
      [
        "45",
        "00원"
      ],
      [
        "6학",
        "년"
      ],
      [
        "://",
        "en.wik"
      ],
      [
        ":05",
        ":28"
      ],
      [
        "<b",
        "r>"
      ],
      [
        "AD",
        "HD"
      ],
      [
        "Am",
        "az"
      ],
      [
        "Bi",
        "rth"
      ],
      [
        "Bu",
        "ena"
      ],
      [
        "Dar",
        "iu"
      ],
      [
        "Fac",
        "eboo"
      ],
      [
        "Gl",
        "as"
      ],
      [
        "Ha",
        "ppy"
      ],
      [
        "Ho",
        "u\"의"
      ],
      [
        "IS",
        "IL"
      ],
      [
        "I,_",
        "Count"
      ],
      [
        "IBM",
        "의"
      ],
      [
        "Je",
        "anne"
      ],
      [
        "Kar",
        "lo"
      ],
      [
        "Lu",
        "heng"
      ],
      [
        "Lil",
        "ith"
      ],
      [
        "Mo",
        "ser,"
      ],
      [
        "Mar",
        "kdo"
      ],
      [
        "Mic",
        "ros"
      ],
      [
        "NY",
        "C"
      ],
      [
        "On",
        "da라는"
      ],
      [
        "Pr",
        "avcic"
      ],
      [
        "Py",
        "thon"
      ],
      [
        "St",
        "ore"
      ],
      [
        "Th",
        "ayer"
      ],
      [
        "Var",
        "y"
      ],
      [
        "Vent",
        "ura"
      ],
      [
        "[d",
        "at"
      ],
      [
        "[j",
        "son"
      ],
      [
        "[প",
        "ণ্"
      ],
      [
        "[시",
        "]"
      ],
      [
        "[에세이",
        "]"
      ],
      [
        "[질문",
        "]"
      ],
      [
        "[au",
        "thor]"
      ],
      [
        "[위치",
        "]"
      ],
      [
        "['나",
        "쁨',"
      ],
      [
        "[전화",
        "번호"
      ],
      [
        "[name",
        "]"
      ],
      [
        "[가격",
        "]"
      ],
      [
        "[웹사이트",
        "]"
      ],
      [
        "['개",
        "',"
      ],
      [
        "_of",
        "_Tr"
      ],
      [
        "ad",
        "e라는"
      ],
      [
        "a.or",
        "g/wik"
      ],
      [
        "cá",
        "i"
      ],
      [
        "củ",
        "a"
      ],
      [
        "dạ",
        "y"
      ],
      [
        "day",
        "라는"
      ],
      [
        "d_II",
        "I,_Count"
      ],
      [
        "fac",
        "ade라는"
      ],
      [
        "i/R",
        "aymon"
      ],
      [
        "lian",
        "t"
      ],
      [
        "nu",
        "ôi"
      ],
      [
        "ps",
        "://en.wik"
      ],
      [
        "par",
        "a"
      ],
      [
        "poet",
        "ica'의"
      ],
      [
        "sw",
        "orks"
      ],
      [
        "vy",
        ","
      ],
      [
        "가르",
        "치"
      ],
      [
        "검은색",
        "입니다"
      ],
      [
        "경주",
        "로"
      ],
      [
        "괴물",
        "의"
      ],
      [
        "교회",
        "의"
      ],
      [
        "구금",
        "의"
      ],
      [
        "국세",
        "청"
      ],
      [
        "기디",
        "온"
      ],
      [
        "기립",
        "니다"
      ],
      [
        "깨어",
        "나"
      ],
      [
        "나눠",
        "줄"
      ],
      [
        "나무",
        "의"
      ],
      [
        "나탈",
        "리아"
      ],
      [
        "남아",
        "도"
      ],
      [
        "네덜",
        "란드어"
      ],
      [
        "네트",
        "워크"
      ],
      [
        "네팔",
        "어"
      ],
      [
        "놀이",
        "터"
      ],
      [
        "다변",
        "량"
      ],
      [
        "대안",
        "인"
      ],
      [
        "대표",
        "의"
      ],
      [
        "던지",
        "기"
      ],
      [
        "도망",
        "쳤"
      ],
      [
        "도시",
        "입니다인"
      ],
      [
        "도우",
        "미"
      ],
      [
        "뒷마",
        "당"
      ],
      [
        "드래",
        "곤"
      ],
      [
        "들려",
        "주"
      ],
      [
        "땅콩",
[...]
